<unk>	0
<s>	0
</s>	0
को	-0
का	-1
▁स	-2
मा	-3
्र	-4
▁प	-5
र्	-6
न्	-7
▁ग	-8
ले	-9
▁ब	-10
▁।	-11
▁र	-12
ने	-13
ला	-14
ार	-15
▁भ	-16
्य	-17
▁अ	-18
▁छ	-19
▁व	-20
▁न	-21
▁क	-22
▁म	-23
▁प्र	-24
▁ह	-25
ाल	-26
▁द	-27
एको	-28
▁ज	-29
ान	-30
▁आ	-31
▁गर	-32
स्	-33
ता	-34
ना	-35
क्	-36
▁उ	-37
▁का	-38
ति	-39
ेको	-40
▁त	-41
री	-42
▁वि	-43
त्र	-44
म्	-45
यो	-46
लाई	-47
नि	-48
वा	-49
▁गर्	-50
ित	-51
या	-52
▁नि	-53
▁ल	-54
▁च	-55
▁थ	-56
▁रा	-57
रा	-58
▁श	-59
▁ला	-60
िक	-61
्या	-62
▁ख	-63
क्ष	-64
नु	-65
रु	-66
न्द	-67
▁ए	-68
पाल	-69
ल्	-70
▁ने	-71
▁दि	-72
बा	-73
था	-74
▁हु	-75
▁मा	-76
एका	-77
▁सं	-78
▁स्	-79
ेका	-80
▁भएको	-81
▁सा	-82
ष्	-83
त्	-84
ाउ	-85
▁१	-86
र्य	-87
ेश	-88
रि	-89
▁थि	-90
▁उन	-91
▁गरेको	-92
▁छन्	-93
▁य	-94
▁सम	-95
▁लाग	-96
बाट	-97
क्र	-98
बार	-99
ुर	-100
▁घ	-101
▁नेपाल	-102
▁२	-103
न्त्र	-104
▁फ	-105
हि	-106
िएको	-107
दै	-108
ीय	-109
हा	-110
िका	-111
रो	-112
द्	-113
▁कार्य	-114
वि	-115
दा	-116
▁बता	-117
▁पनि	-118
पा	-119
हरु	-120
ाइ	-121
▁हो	-122
र्ष	-123
कार	-124
▁रह	-125
▁सु	-126
ेल	-127
भा	-128
ेर	-129
▁पु	-130
ष्ट	-131
▁निर्	-132
▁ट	-133
छि	-134
▁जना	-135
हरी	-136
ीले	-137
▁भने	-138
धान	-139
गा	-140
रण	-141
▁प्रहरी	-142
▁लागि	-143
स्त	-144
ध्य	-145
ालय	-146
ारी	-147
ेख	-148
ही	-149
▁सम्	-150
सा	-151
▁पा	-152
पछि	-153
्च	-154
▁एक	-155
ठमा	-156
▁ड	-157
▁गर्ने	-158
नी	-159
▁अनु	-160
▁उप	-161
देश	-162
▁वर्ष	-163
▁दु	-164
डौ	-165
▁बै	-166
▁को	-167
▁काठमा	-168
स्था	-169
▁प्रति	-170
▁के	-171
लो	-172
▁गर्न	-173
न्त	-174
गर	-175
स्थ	-176
▁बा	-177
▁काठमाडौ	-178
▁थियो	-179
▁सह	-180
▁तथा	-181
िल्	-182
की	-183
भि	-184
योग	-185
क्त	-186
कारी	-187
▁बि	-188
▁सर	-189
▁रु	-190
▁क्	-191
ली	-192
जार	-193
▁उनले	-194
▁व्य	-195
▁बताए	-196
ेस	-197
ंग	-198
रह	-199
ेट	-200
▁ध	-201
टा	-202
िय	-203
▁राज	-204
म्म	-205
▁स्थ	-206
ंक	-207
ण्	-208
ष्ट्र	-209
द्ध	-210
याँ	-211
न्द्र	-212
▁सि	-213
र्व	-214
▁गरेका	-215
मु	-216
सार	-217
ँग	-218
▁थिए	-219
्न	-220
▁त्य	-221
▁रहेको	-222
▁मु	-223
क्रम	-224
▁३	-225
ेखि	-226
न्त्री	-227
▁बढ	-228
▁यस	-229
योज	-230
▁हुने	-231
▁ना	-232
प्	-233
▁सरकार	-234
▁कु	-235
प्र	-236
ेत	-237
▁इ	-238
ृत	-239
म्प	-240
▁लि	-241
▁अव	-242
हर	-243
डा	-244
मी	-245
र्ने	-246
▁क्ष	-247
नमा	-248
सी	-249
र्थ	-250
▁से	-251
▁आफ	-252
▁रुप	-253
▁—	-254
ानी	-255
▁गरिएको	-256
िल्ला	-257
▁भएका	-258
▁५	-259
्यु	-260
टी	-261
सँग	-262
्व	-263
▁काठमाडौं	-264
ोल	-265
ण्ड	-266
▁जान	-267
▁जिल्ला	-268
सि	-269
▁गरि	-270
एर	-271
धि	-272
▁हजार	-273
▁हुन्	-274
ाउँ	-275
्रा	-276
▁स्थान	-277
चार	-278
हरू	-279
ङ्	-280
पालिका	-281
जा	-282
न्य	-283
पुर	-284
कि	-285
मन्त्री	-286
न्न	-287
टर	-288
मि	-289
कु	-290
▁सो	-291
▁‘	-292
▁ठ	-293
▁४	-294
▁कार्यालय	-295
ध्यक्ष	-296
▁बैंक	-297
ञ्च	-298
▁परि	-299
▁गरी	-300
ेत्र	-301
▁गत	-302
▁व्यव	-303
ीमा	-304
▁बु	-305
ीन	-306
क्षा	-307
▁राष्ट्र	-308
्रो	-309
▁पर	-310
▁जानकारी	-311
▁मह	-312
वार	-313
▁गर्दै	-314
▁वा	-315
मुख	-316
▁अध	-317
्रम	-318
सम्म	-319
▁काम	-320
▁क्षेत्र	-321
▁पू	-322
▁मि	-323
न्ध	-324
रहेको	-325
ँदै	-326
नको	-327
▁बना	-328
▁२०	-329
ारत	-330
▁गरे	-331
▁यो	-332
▁६	-333
दी	-334
▁लाख	-335
म्ब	-336
न्दा	-337
नुप	-338
▁रो	-339
▁हा	-340
▁उनी	-341
▁विश	-342
धार	-343
मान	-344
लि	-345
देखि	-346
▁भए	-347
र्ता	-348
qu	-349
▁दुई	-350
ती	-351
quo	-352
▁या	-353
िति	-354
सक	-355
▁कि	-356
▁प्रा	-357
squo	-358
▁भारत	-359
माण	-360
▁दा	-361
▁सय	-362
द्य	-363
उन	-364
▁राख	-365
ेला	-366
उने	-367
योजना	-368
▁दिन	-369
▁जनाएको	-370
जी	-371
बै	-372
बी	-373
िम	-374
र्फ	-375
रमा	-376
▁अनुसार	-377
शा	-378
▁नै	-379
स्प	-380
▁मृत	-381
▁महि	-382
▁मो	-383
ेन्	-384
▁लग	-385
डि	-386
▁अध्यक्ष	-387
▁नेपाली	-388
▁जा	-389
▁गु	-390
यर	-391
टना	-392
▁अर्	-393
निक	-394
▁(	-395
ग्	-396
▁७	-397
▁जन	-398
▁पहि	-399
हित	-400
पी	-401
ट्	-402
स्ता	-403
▁प्रमुख	-404
▁समा	-405
▁त्यस	-406
▁प्रहरीले	-407
▁दिए	-408
▁स्थानीय	-409
घि	-410
ग्र	-411
▁कम्प	-412
भाग	-413
गत	-414
▁कार्यक्रम	-415
▁ओ	-416
▁झ	-417
▁रुपै	-418
दि	-419
र्ण	-420
खा	-421
▁निय	-422
▁था	-423
▁प्रधान	-424
▁सञ्च	-425
▁पार्	-426
ोक	-427
▁सबै	-428
▁नगर	-429
डी	-430
दुर	-431
ठक	-432
त्त	-433
▁रुपैयाँ	-434
▁समिति	-435
्ञ	-436
यत	-437
क्ति	-438
ष्ठ	-439
ेद	-440
▁शु	-441
▁भइ	-442
▁स्वा	-443
▁अधिका	-444
▁महा	-445
▁श्र	-446
र्म	-447
ताल	-448
चि	-449
▁घर	-450
▁मृत्यु	-451
▁कारण	-452
ुवा	-453
▁:	-454
ाउने	-455
▁सद	-456
न्छ	-457
सो	-458
कै	-459
नुपर्ने	-460
▁८	-461
▁निर्माण	-462
▁बैठक	-463
भाव	-464
▁जो	-465
▁सरकारले	-466
ाउन	-467
राज	-468
▁शा	-469
▁केन्द्र	-470
टक	-471
कास	-472
▁मात्र	-473
स्थित	-474
▁आइ	-475
क्राउ	-476
लमा	-477
▁बज	-478
स्य	-479
▁व्यवस्था	-480
▁करो	-481
▁शि	-482
▁गाउँ	-483
हादुर	-484
िया	-485
▁पो	-486
न्दै	-487
ँच	-488
▁मन्त्र	-489
▁'	-490
▁पक्राउ	-491
▁खो	-492
▁करोड	-493
हु	-494
▁बो	-495
▁पुग	-496
▁उक्त	-497
ैन	-498
▁अन्त	-499
▁हुन	-500
▁आएको	-501
▁गा	-502
पति	-503
स्पताल	-504
▁भन्	-505
लेख	-506
सहित	-507
▁सेवा	-508
▁९	-509
▁प्रदेश	-510
ारा	-511
▁समय	-512
▁समेत	-513
रको	-514
▁स्व	-515
ँदा	-516
▁अस्पताल	-517
▁लगा	-518
▁तीन	-519
ेक	-520
इएको	-521
हान	-522
▁अवस्था	-523
▁रहेका	-524
सम	-525
▁ल्या	-526
बहादुर	-527
र्क	-528
▁तर	-529
हिले	-530
▁गो	-531
▁हि	-532
सन	-533
र्च	-534
दान	-535
▁बस	-536
पू	-537
वन	-538
▁भन्दै	-539
ौं	-540
▁प्रतिश	-541
▁१०	-542
बन्ध	-543
▁विद	-544
▁निर्ण	-545
▁सञ्चाल	-546
तिक	-547
्ने	-548
हरुले	-549
धन	-550
▁प्रधानमन्त्री	-551
डक	-552
रीक्ष	-553
▁गते	-554
▁छैन	-555
▁आफ्न	-556
▁क्रम	-557
▁भा	-558
▁ढ	-559
मै	-560
पमा	-561
फल	-562
▁निर्णय	-563
टि	-564
▁माग	-565
▁प्रतिशत	-566
ुक्त	-567
स्थ्य	-568
भन्दा	-569
यन	-570
▁अभि	-571
ब्	-572
▁तय	-573
▁&	-574
▁विज	-575
वाच	-576
▁खु	-577
▁देखि	-578
ूल	-579
▁सुरु	-580
▁विकास	-581
ाली	-582
जि	-583
बि	-584
▁आव	-585
टन	-586
▁उपचार	-587
▁केही	-588
णा	-589
▁सुर	-590
▁पार्टी	-591
तामा	-592
▁चा	-593
▁खेल	-594
▁दिएको	-595
▁उत्	-596
हाँ	-597
जु	-598
लु	-599
▁खा	-600
▁नगरपालिका	-601
▁साथ	-602
त्व	-603
ेव	-604
▁सडक	-605
त्य	-606
▁विष	-607
सं	-608
▁नयाँ	-609
वास	-610
ाना	-611
▁पत्र	-612
कम	-613
▁अहिले	-614
चिव	-615
▁निर्वाच	-616
जन	-617
▁सदस्य	-618
▁स्वास्थ्य	-619
▁देश	-620
च्च	-621
स्ट	-622
न्ति	-623
प्त	-624
▁बढी	-625
▁देख	-626
छन्	-627
▁विश्व	-628
▁कम्पनी	-629
नै	-630
▁डा	-631
थि	-632
▁प्रव	-633
▁गरेर	-634
▁संघ	-635
▁नभ	-636
▁दल	-637
मो	-638
सद	-639
▁औ	-640
ते	-641
▁आयोजना	-642
्रेस	-643
▁मे	-644
▁मन्त्रालय	-645
▁नेता	-646
▁चि	-647
▁भि	-648
भिन्न	-649
क्ने	-650
▁राम	-651
lsquo	-652
▁राष्ट्रिय	-653
▁पार	-654
ोर	-655
▁अधिकारी	-656
माले	-657
ेन्द्र	-658
▁थप	-659
न्स	-660
▁क्रममा	-661
▁बाल	-662
धा	-663
▁विषय	-664
ुट	-665
ित्	-666
एपछि	-667
▁सहयोग	-668
मार	-669
▁सभा	-670
हरुको	-671
▁रि	-672
▁आफ्नो	-673
▁पूर्व	-674
अघि	-675
विधान	-676
▁अम	-677
▁उनको	-678
▁विभिन्न	-679
कृ	-680
▁कम	-681
▁भन्ने	-682
▁बस्	-683
▁घटना	-684
क्ता	-685
र्ग	-686
पत्र	-687
टो	-688
स्तो	-689
▁पहिलो	-690
▁दो	-691
▁जारी	-692
▁संस्था	-693
्रि	-694
सन्	-695
मति	-696
▁रुपमा	-697
न्ड	-698
▁डि	-699
रोना	-700
▁काठमाडौँ	-701
स्तै	-702
ोग	-703
क्रमण	-704
▁भइरहेको	-705
▁वर्षीय	-706
यी	-707
rsquo	-708
▁भू	-709
▁दिने	-710
▁सू	-711
र्थिक	-712
▁गाउँपालिका	-713
बीच	-714
▁घाइ	-715
वादी	-716
र्श	-717
▁बजार	-718
▁आएका	-719
सकेको	-720
▁निर्देश	-721
सन्धान	-722
▁अन्य	-723
▁संविधान	-724
▁महिला	-725
जिक	-726
▁आर्थिक	-727
ञ्	-728
ंग्रेस	-729
ेष्ठ	-730
▁कोरोना	-731
▁यु	-732
▁ति	-733
▁चु	-734
▁सार्व	-735
ीर	-736
▁सामा	-737
कल	-738
▁अनुसन्धान	-739
्यान	-740
▁बताएका	-741
चना	-742
सु	-743
र्ड	-744
▁चौ	-745
जनिक	-746
▁उल्	-747
▁सम्प	-748
▁बे	-749
▁आज	-750
से	-751
श्य	-752
▁घाइते	-753
▁सार्वजनिक	-754
लेको	-755
▁अप	-756
सभा	-757
यक	-758
▁महिना	-759
नका	-760
▁आरो	-761
त्या	-762
▁जि	-763
▁आफू	-764
▁दुर्	-765
▁पोख	-766
स्या	-767
ंगल	-768
▁कांग्रेस	-769
श्च	-770
▁बाँ	-771
ट्ट	-772
▁सोम	-773
ङ्ग	-774
ड्	-775
▁भेट	-776
ोष	-777
रुद्ध	-778
▁श्रेष्ठ	-779
▁कुनै	-780
उँ	-781
काल	-782
▁रकम	-783
समेत	-784
बु	-785
▁कृ	-786
▁रू	-787
▁क्षेत्रमा	-788
सको	-789
▁चार	-790
▁वटा	-791
▁थापा	-792
▁नियन्त्र	-793
▁पुन	-794
हरुलाई	-795
ालत	-796
ताको	-797
▁सम्बन्ध	-798
▁अद	-799
धिक	-800
▁आइत	-801
▁बिहान	-802
बारे	-803
▁पाँच	-804
▁व्यक्ति	-805
▁नम्ब	-806
ूह	-807
▁बन्द	-808
▁समस्या	-809
श्यक	-810
चा	-811
वाद	-812
▁इन्	-813
हार	-814
घटना	-815
▁मूल	-816
रहेका	-817
▁नाम	-818
गरी	-819
टमा	-820
पन	-821
राम	-822
▁बुध	-823
▁नियन्त्रण	-824
ेरि	-825
▁छो	-826
▁परेको	-827
ाएको	-828
गायत	-829
पु	-830
▁गर्दा	-831
ृद्ध	-832
रोध	-833
▁शुक्र	-834
ेड	-835
▁सुरक्षा	-836
▁उल्लेख	-837
▁परेका	-838
द्यालय	-839
के	-840
▁उद्य	-841
घा	-842
▁प्रयोग	-843
गरिक	-844
▁शे	-845
पूर्ण	-846
▁कार्	-847
▁अर्ब	-848
▁अदालत	-849
र्न	-850
▁कर्म	-851
फा	-852
▁लगानी	-853
▁पठ	-854
नो	-855
▁सकि	-856
▁हाल	-857
सर	-858
भित्र	-859
▁आधार	-860
▁सोमबार	-861
▁सम्म	-862
▁विद्या	-863
▁सहभाग	-864
▁आइतबार	-865
करण	-866
हीबार	-867
साद	-868
▁१५	-869
▁नागरिक	-870
ीको	-871
पाद	-872
कुमार	-873
▁१२	-874
▁निका	-875
ेरै	-876
समा	-877
▁छल	-878
▁छा	-879
ेन्ट	-880
▁मन्त्री	-881
पि	-882
▁बेला	-883
▁पर्ने	-884
▁मंगल	-885
ध्ये	-886
▁सर्व	-887
▁११	-888
▁बुधबार	-889
▁कुरा	-890
▁करि	-891
▁विभाग	-892
न्या	-893
▁दुर्घटना	-894
ख्या	-895
▁चाल	-896
▁दिएका	-897
उँदै	-898
वारी	-899
▁पछि	-900
▁आयोग	-901
तर्फ	-902
▁व्यवसा	-903
कको	-904
▁लागेको	-905
▁।’	-906
युक्त	-907
▁शुक्रबार	-908
जना	-909
म्भ	-910
तृ	-911
▁व्या	-912
ालले	-913
▁सचिव	-914
नाइ	-915
▁ले	-916
▁बिहीबार	-917
कर्ता	-918
▁ट्र	-919
▁शनि	-920
सले	-921
▁अघि	-922
▁समूह	-923
ेष	-924
क्रिया	-925
वै	-926
▁विज्ञ	-927
चारी	-928
▁धेरै	-929
▁भारतीय	-930
▁ती	-931
▁अवस्थामा	-932
▁मुलु	-933
▁मत	-934
ग्रह	-935
ाइएको	-936
यात	-937
▁नग	-938
गम	-939
भर	-940
इन्	-941
▁सङ्	-942
▁आवश्यक	-943
▁सहमति	-944
▁उद्योग	-945
▁महान	-946
रीक्षक	-947
ेपछि	-948
▁५०	-949
ंह	-950
▁जु	-951
▁मंगलबार	-952
▁अन्तर	-953
लव	-954
▁अब	-955
प्रसाद	-956
▁शर्	-957
▁मुख	-958
▁पर्	-959
न्व	-960
▁योजना	-961
सँगै	-962
▁टो	-963
▁पौ	-964
▁कर्मचारी	-965
▁छलफल	-966
यार	-967
▁हुँदै	-968
▁न्य	-969
▁पर्य	-970
लगायत	-971
▁दश	-972
▁कार	-973
,’	-974
ोधन	-975
्री	-976
▁वडा	-977
एस	-978
▁भएपछि	-979
▁घोष	-980
वेद	-981
स्तु	-982
द्दा	-983
काश	-984
▁कार्यक्रममा	-985
र्ट	-986
▁शनिबार	-987
ओवादी	-988
डेल	-989
▁तयारी	-990
ष्ण	-991
▁पत्रकार	-992
अनु	-993
ञ्ज	-994
दर्श	-995
▁बजे	-996
▁राष्ट्रपति	-997
इन	-998
▁उपा	-999
स्ताव	-1000
क्षण	-1001
▁गएको	-1002
र्त	-1003
▁विषयमा	-1004
▁फि	-1005
रत	-1006
पो	-1007
▁निर्वाचन	-1008
▁मूल्य	-1009
लको	-1010
शी	-1011
▁जी	-1012
nd	-1013
▁नेतृ	-1014
▁मुद्दा	-1015
▁तह	-1016
स्रो	-1017
राई	-1018
▁विद्यार्थ	-1019
र्फत	-1020
ुल	-1021
▁एमाले	-1022
▁ठू	-1023
as	-1024
▁२५	-1025
ैनिक	-1026
▁उत्पाद	-1027
▁बस्ने	-1028
▁पुगेको	-1029
▁बने	-1030
▁सञ्चालन	-1031
▁पुर	-1032
▁बुझ	-1033
▁वै	-1034
छा	-1035
▁स्था	-1036
▁ग्रा	-1037
वी	-1038
▁याद	-1039
▁नेतृत्व	-1040
धारण	-1041
ठन	-1042
▁प्रभाव	-1043
ष्ट्रिय	-1044
▁प्रस्ताव	-1045
वरण	-1046
हरूले	-1047
▁करिब	-1048
नीले	-1049
▁हुन्छ	-1050
नामा	-1051
▁भाइ	-1052
कमा	-1053
नीतिक	-1054
▁बैंकले	-1055
ash	-1056
▁गरिने	-1057
नस	-1058
▁घोषणा	-1059
▁गोल	-1060
▁यादव	-1061
▁शेयर	-1062
▁भएकाले	-1063
▁२०७	-1064
्यो	-1065
त्म	-1066
▁।'	-1067
हो	-1068
▁ता	-1069
▁यात्र	-1070
▁विदेश	-1071
शु	-1072
▁जित	-1073
▁जनाको	-1074
▁परिवार	-1075
▁सां	-1076
न्दोल	-1077
▁सक्ने	-1078
▁लक्ष	-1079
▁प्रशा	-1080
▁लगायत	-1081
नुभ	-1082
▁भनि	-1083
त्ता	-1084
▁पटक	-1085
▁चीन	-1086
▁दाह	-1087
जग	-1088
कर	-1089
अनुसार	-1090
▁तत्	-1091
माथि	-1092
कपा	-1093
ृद्धि	-1094
▁मुख्य	-1095
▁प्रश	-1096
▁अधिक	-1097
▁भट्ट	-1098
रीक्षण	-1099
▁दोस्रो	-1100
ndash	-1101
▁साथै	-1102
दार	-1103
▁पुर्	-1104
▁सम्झ	-1105
▁पद	-1106
▁उच्च	-1107
▁विशेष	-1108
▁कारो	-1109
▁आग्रह	-1110
▁परी	-1111
तरण	-1112
ीत	-1113
▁मात्रै	-1114
▁रे	-1115
▁सक	-1116
▁आन्दोल	-1117
▁हुँदा	-1118
र्गत	-1119
कले	-1120
संघ	-1121
लग	-1122
▁रूपमा	-1123
▁क्या	-1124
प्रति	-1125
सै	-1126
▁१९	-1127
तियार	-1128
▁टोली	-1129
लब	-1130
▁उपल	-1131
▁हे	-1132
▁आग	-1133
ारे	-1134
यान	-1135
▁सहभागी	-1136
▁लिएको	-1137
▁बजेट	-1138
▁पौडेल	-1139
▁प्रदान	-1140
▁विद्यालय	-1141
▁नेपालको	-1142
▁कम्पनीले	-1143
▁उद्	-1144
ृह	-1145
▁पक्ष	-1146
तन्त्र	-1147
▁सन्	-1148
▁सूचना	-1149
क्स	-1150
▁अर्थ	-1151
▁१४	-1152
▁सवारी	-1153
यम	-1154
निधि	-1155
▁उपलब्	-1156
▁३०	-1157
ेन	-1158
▁साम	-1159
▁मध	-1160
▁आरोप	-1161
परि	-1162
▁प्राप्त	-1163
▁हाम	-1164
▁केन्द्रीय	-1165
▁भनाइ	-1166
▁पी	-1167
▁अफ	-1168
▁गर्नुपर्ने	-1169
विधि	-1170
▁नहु	-1171
▁निर्देशन	-1172
तिमा	-1173
ढी	-1174
लामा	-1175
धी	-1176
पना	-1177
मध्ये	-1178
साइ	-1179
▁विमान	-1180
▁स्थानमा	-1181
कर्	-1182
झा	-1183
बर	-1184
▁हत्या	-1185
▁१३	-1186
▁अगा	-1187
▁एव	-1188
▁भन्दा	-1189
ौँ	-1190
▁फो	-1191
न्तर	-1192
ल्या	-1193
र्ज	-1194
▁छि	-1195
▁ऐ	-1196
▁विक	-1197
▁सेना	-1198
लले	-1199
▁भाइर	-1200
▁देखिएको	-1201
▁भ्रम	-1202
चाल	-1203
न्ज	-1204
▁गौ	-1205
▁आयोज	-1206
▁एउ	-1207
डान	-1208
▁नी	-1209
▁नेकपा	-1210
▁यसअघि	-1211
▁म्या	-1212
▁मौ	-1213
▁अन	-1214
ज्ञ	-1215
▁लोक	-1216
▁परीक्षण	-1217
▁आउने	-1218
धिका	-1219
▁यस्तो	-1220
▁विद्यु	-1221
▁प्रदर्श	-1222
ंश	-1223
▁खर्च	-1224
▁कारोबार	-1225
▁गुरु	-1226
▁नभएको	-1227
▁राई	-1228
▁शाखा	-1229
▁राति	-1230
▁बैठकले	-1231
▁युवा	-1232
▁विद्यार्थी	-1233
▁बनाउन	-1234
▁वितरण	-1235
नुपर्	-1236
▁प्रवक्ता	-1237
▁जोड	-1238
पक्ष	-1239
▁बिक	-1240
▁राजनीतिक	-1241
▁प्रक्रिया	-1242
▁त्रि	-1243
तले	-1244
▁अस्पतालमा	-1245
▁वर्षको	-1246
▁संसद	-1247
▁दर्ता	-1248
रीको	-1249
त्ति	-1250
▁भित्र	-1251
स्थल	-1252
▁अधिकृत	-1253
▁टोल	-1254
▁सम्पन्न	-1255
विरुद्ध	-1256
▁जाने	-1257
र्जा	-1258
ेरिका	-1259
▁पै	-1260
▁अनि	-1261
▁सम्झौ	-1262
▁खोज	-1263
▁साँ	-1264
ख्	-1265
वाह	-1266
▁ब्या	-1267
▁व्याप	-1268
ोट	-1269
▁झा	-1270
▁आधारमा	-1271
ारि	-1272
▁पानी	-1273
▁शिक्षा	-1274
नले	-1275
▁भ्रमण	-1276
ेकी	-1277
ग्गा	-1278
▁नेपालमा	-1279
▁संख्या	-1280
▁सम्मेल	-1281
दर	-1282
▁क्र	-1283
▁सांसद	-1284
▁एस	-1285
रिया	-1286
र्चा	-1287
▁दुवै	-1288
▁उनलाई	-1289
▁गर्नु	-1290
▁सरकारी	-1291
ंगा	-1292
▁उपलब्ध	-1293
▁नियन्त्रणमा	-1294
पनि	-1295
▁जे	-1296
,'	-1297
ल्ला	-1298
▁सी	-1299
▁१६	-1300
दाय	-1301
ल्लो	-1302
▁नेपालले	-1303
▁संग	-1304
सका	-1305
▁प्रतियोग	-1306
तम	-1307
लाइ	-1308
▁ठूलो	-1309
पर	-1310
▁बाहि	-1311
▁सिंह	-1312
बल	-1313
▁डे	-1314
▁कै	-1315
वल	-1316
▁अध्य	-1317
कोट	-1318
▁अमेरिका	-1319
षद्	-1320
गु	-1321
▁मानि	-1322
▁सात	-1323
▁शर्मा	-1324
▁१८	-1325
डित	-1326
यण	-1327
मार्ग	-1328
हरूको	-1329
व्य	-1330
▁सरकारको	-1331
▁दैनिक	-1332
▁अन्तर्रा	-1333
▁श्री	-1334
षा	-1335
िकी	-1336
वेश	-1337
▁भण्ड	-1338
▁फिल्	-1339
रे	-1340
▁खे	-1341
दू	-1342
▁उत्पादन	-1343
टल	-1344
▁लेख	-1345
स्क	-1346
ीया	-1347
गामी	-1348
ङको	-1349
▁जग्गा	-1350
ल्ने	-1351
श्व	-1352
▁नम्बर	-1353
▁संक्रमण	-1354
▁बी	-1355
▁कानु	-1356
▁भाग	-1357
▁दाबी	-1358
▁समाज	-1359
▁सामाजिक	-1360
▁ऋ	-1361
▁प्रकाश	-1362
ाल्	-1363
▁फर्	-1364
ारायण	-1365
णि	-1366
▁प्रतियोगि	-1367
▁खरि	-1368
▁धा	-1369
▁उनका	-1370
▁संर	-1371
▁दू	-1372
एम	-1373
षि	-1374
▁अन्तर्राष्ट्रिय	-1375
ारमा	-1376
िर	-1377
▁राजधान	-1378
नाथ	-1379
र्ति	-1380
कम्प	-1381
▁लिएर	-1382
ष्टि	-1383
ङले	-1384
मिक	-1385
▁लु	-1386
▁पोखरा	-1387
▁ठाउँ	-1388
देव	-1389
▁क्षति	-1390
ेता	-1391
▁सफल	-1392
▁समयमा	-1393
ल्क	-1394
▁सीमा	-1395
▁संश	-1396
▁फै	-1397
लीले	-1398
लाका	-1399
सचिव	-1400
▁तयार	-1401
र्वा	-1402
▁अगाडि	-1403
यु	-1404
नाव	-1405
▁प्रतिनिधि	-1406
▁राज्य	-1407
▁बैठकमा	-1408
ीका	-1409
▁माओवादी	-1410
▁आगामी	-1411
▁सक्	-1412
▁कार्या	-1413
▁भएर	-1414
तमा	-1415
ाइन	-1416
▁बढेको	-1417
▁भट्टराई	-1418
च्	-1419
वेदन	-1420
▁प्रशासन	-1421
▁खरिद	-1422
▁गरा	-1423
नुपर्छ	-1424
▁नीति	-1425
▁न्या	-1426
▁मोटर	-1427
ैं	-1428
लेका	-1429
▁गृह	-1430
▁खेलमा	-1431
▁अध्ययन	-1432
▁पाइ	-1433
स्व	-1434
▁फा	-1435
▁तामा	-1436
▁बनाउने	-1437
ेउ	-1438
▁विरोध	-1439
▁गरेपछि	-1440
तो	-1441
▁दशम	-1442
▁कर	-1443
▁सम्झौता	-1444
▁पदा	-1445
▁कोइ	-1446
▁बैंकको	-1447
▁वित्त	-1448
काम	-1449
▁ज्ञ	-1450
कर्मी	-1451
▁मान	-1452
▁फिल्म	-1453
म्भीर	-1454
▁अमेर	-1455
पक	-1456
▁व्यवसायी	-1457
▁नस	-1458
▁एउटा	-1459
▁बजारमा	-1460
▁गरिरहेको	-1461
वान	-1462
▁छु	-1463
▁मै	-1464
ालिका	-1465
▁उत्त	-1466
▁शव	-1467
श्चिम	-1468
▁हामी	-1469
▁ग्राह	-1470
क्षक	-1471
▁अभियान	-1472
▁रोजग	-1473
▁त्यसै	-1474
बाही	-1475
▁अझ	-1476
▁निकाय	-1477
रुप	-1478
▁पि	-1479
▁टोलीले	-1480
▁मिने	-1481
▁अर्को	-1482
▁त्यस्तै	-1483
▁परीक्षा	-1484
▁ओली	-1485
▁गम्भीर	-1486
▁वर्षीया	-1487
राला	-1488
र्जन	-1489
▁?	-1490
▁चित	-1491
लेर	-1492
▁चला	-1493
▁कार्यान्व	-1494
▁सोही	-1495
▁१७	-1496
▁मुलुक	-1497
सस	-1498
▁समाचार	-1499
▁विरा	-1500
▁नियम	-1501
▁बसेको	-1502
म्मा	-1503
▁प्रवेश	-1504
हरुमा	-1505
▁बरा	-1506
▁एवं	-1507
तको	-1508
रेल	-1509
▁संयोज	-1510
स्त्र	-1511
▁गि	-1512
▁संयुक्त	-1513
▁पाउने	-1514
▁ढु	-1515
▁दी	-1516
रले	-1517
▁अस	-1518
लाग	-1519
▁दशमलव	-1520
▁अमेरिकी	-1521
▁उठ	-1522
▁हुनेछ	-1523
▁फर	-1524
▁२०१	-1525
एकी	-1526
काली	-1527
▁ज्यान	-1528
▁वित्तीय	-1529
▁रोक	-1530
▁भनेर	-1531
त्मक	-1532
▁त्यो	-1533
▁अवधि	-1534
▁बाँकी	-1535
खु	-1536
▁सुन	-1537
▁सामान्य	-1538
▁२४	-1539
कलन	-1540
▁लिन	-1541
▁समितिले	-1542
▁सम्ब	-1543
▁४०	-1544
▁तत्काल	-1545
ग्ने	-1546
पानी	-1547
▁मध्य	-1548
स्कार	-1549
▁कोइराला	-1550
ग्री	-1551
र्स	-1552
▁स्प	-1553
▁खेला	-1554
▁मन्त्रालयले	-1555
▁चालक	-1556
▁व्यवस्थापन	-1557
ख्तियार	-1558
▁साँझ	-1559
▁तर्फ	-1560
▁मधेस	-1561
कृति	-1562
▁टु	-1563
पटक	-1564
वासी	-1565
विधा	-1566
▁पूर्ण	-1567
िकित्	-1568
▁बिक्री	-1569
कड	-1570
▁कम्पनीको	-1571
▁उद्ध	-1572
▁विस्त	-1573
सिया	-1574
▁उम्म	-1575
गरपालिका	-1576
▁२१	-1577
एन	-1578
▁यसै	-1579
▁कोष	-1580
▁थापाले	-1581
रीले	-1582
▁भयो	-1583
▁दक्ष	-1584
्दै	-1585
क्रमित	-1586
न्तिम	-1587
▁समु	-1588
धे	-1589
▁ऋण	-1590
▁जनता	-1591
▁धन	-1592
▁देव	-1593
▁स्ट	-1594
▁नजिक	-1595
▁निर	-1596
कर्ष	-1597
▁प्रत्य	-1598
▁कारबाही	-1599
▁अन्तिम	-1600
▁२२	-1601
निर्	-1602
न्दी	-1603
लित	-1604
▁युव	-1605
सरमा	-1606
▁साता	-1607
नुभयो	-1608
▁औं	-1609
▁“	-1610
▁खड्	-1611
ंका	-1612
क्का	-1613
ढा	-1614
्ना	-1615
सकेका	-1616
▁स्रो	-1617
दो	-1618
▁चरण	-1619
▁विश्	-1620
▁पछिल्लो	-1621
▁ओलीले	-1622
▁कायम	-1623
▁घट	-1624
धिकरण	-1625
▁घरमा	-1626
▁चिकित्	-1627
▁नम्बरको	-1628
▁यात्रु	-1629
ल्न	-1630
▁विवाद	-1631
▁तो	-1632
▁योग	-1633
▁गण	-1634
कार्य	-1635
लग्न	-1636
▁किलो	-1637
▁अख्तियार	-1638
▁राखिएको	-1639
क्टर	-1640
मिट	-1641
▁यहाँ	-1642
हरूलाई	-1643
न्धी	-1644
▁वृद्धि	-1645
पको	-1646
▁भक्त	-1647
डियो	-1648
▁आदेश	-1649
▁संशोधन	-1650
▁नाय	-1651
▁राह	-1652
टनगर	-1653
तायात	-1654
ेसम्म	-1655
▁फेला	-1656
▁टि	-1657
▁हस्ता	-1658
▁कृषि	-1659
▁श्रेष्ठले	-1660
▁उम्मेद	-1661
▁संघीय	-1662
▁व्यवसाय	-1663
▁रहने	-1664
▁कृष्ण	-1665
धेयक	-1666
▁स्वी	-1667
▁प्राधिकरण	-1668
न्ट	-1669
ँजी	-1670
ेज	-1671
▁चौध	-1672
▁बाटो	-1673
▁पहिरो	-1674
▁यातायात	-1675
▁उपचारका	-1676
▁लामो	-1677
राष्ट्र	-1678
ोरी	-1679
▁बारे	-1680
▁सबैभन्दा	-1681
▁यस्तै	-1682
▁चिनि	-1683
▁महासंघ	-1684
ज्य	-1685
तार	-1686
▁मोटरसाइ	-1687
▁संलग्न	-1688
▁सुविधा	-1689
▁संयोजक	-1690
आर	-1691
▁नेपालका	-1692
▁क्लब	-1693
▁सकिने	-1694
िण	-1695
▁पैसा	-1696
▁पुगेका	-1697
▁उपरीक्षक	-1698
िपरि	-1699
सम्ब	-1700
▁भु	-1701
▁पीडित	-1702
▁व्यक्त	-1703
▁विधेयक	-1704
▁भूकम्प	-1705
▁गठन	-1706
▁प्रया	-1707
▁बिरा	-1708
39	-1709
▁फिर्ता	-1710
▁शान्ति	-1711
द्र	-1712
▁गावि	-1713
#39	-1714
ालि	-1715
#39;	-1716
फो	-1717
▁तेस	-1718
द्वार	-1719
▁प्रदर्शन	-1720
आई	-1721
▁स्थापना	-1722
▁आक्रमण	-1723
▁दिउँ	-1724
▁पर्यटक	-1725
▁गाडी	-1726
मन्त्र	-1727
▁बीमा	-1728
ेप	-1729
▁न्यू	-1730
▁ई	-1731
▁वीर	-1732
▁सहित	-1733
▁रासस	-1734
▁विज्ञप्	-1735
▁भई	-1736
▁बनेको	-1737
▁दाहाल	-1738
▁नहुने	-1739
न्ने	-1740
▁आई	-1741
▁आफ्ना	-1742
गन्ज	-1743
ियन	-1744
▁भी	-1745
रान	-1746
▁जनालाई	-1747
▁मन	-1748
रू	-1749
▁कार्यकर्ता	-1750
▁तेस्रो	-1751
▁टा	-1752
▁त्यहाँ	-1753
िएका	-1754
▁बनाएको	-1755
▁पर्यटन	-1756
▁नदि	-1757
▁औष	-1758
▁पराज	-1759
▁देउ	-1760
▁विराटनगर	-1761
▁दिउँसो	-1762
zw	-1763
दु	-1764
कट	-1765
▁उहाँ	-1766
▁सम्भाव	-1767
▁दुर्घटनामा	-1768
▁फुट	-1769
▁मन्त्रिपरि	-1770
▁पूरा	-1771
▁कार्यालयले	-1772
▁बताइएको	-1773
▁सर्	-1774
▁आन्दोलन	-1775
▁नं	-1776
▁छोरा	-1777
▁तस्	-1778
▁दक्षिण	-1779
▁छुट	-1780
▁बर्ष	-1781
▁घा	-1782
सीले	-1783
कृत	-1784
▁तुल	-1785
▁बिरामी	-1786
▁आयोजित	-1787
▁अपरा	-1788
▁अंक	-1789
▁जिल्लामा	-1790
▁केपी	-1791
त्री	-1792
▁समितिको	-1793
▁निर्देशक	-1794
प्रधान	-1795
हन	-1796
▁ध्य	-1797
▁नाका	-1798
▁बर्	-1799
▁प्रस्तु	-1800
▁जल	-1801
नेपाल	-1802
▁प्रण	-1803
▁कार्यालयमा	-1804
सद्	-1805
▁अधिकार	-1806
▁कति	-1807
▁जिम्म	-1808
ेलि	-1809
▁गीत	-1810
वर	-1811
▁कार्यकारी	-1812
▁२८	-1813
▁आठ	-1814
▁उडान	-1815
▁भर्	-1816
▁भारतको	-1817
▁उपाध्यक्ष	-1818
ठा	-1819
लेज	-1820
बद्ध	-1821
ँड	-1822
मती	-1823
वे	-1824
▁सश	-1825
▁वर्षा	-1826
हल	-1827
▁व्यापार	-1828
▁निजी	-1829
धु	-1830
▁विवरण	-1831
▁तोक	-1832
वर्त	-1833
ाउँदै	-1834
▁खड्का	-1835
▁छान	-1836
▁नाममा	-1837
खिम	-1838
▁प्रहरीको	-1839
▁सिफ	-1840
▁पोखरेल	-1841
मारी	-1842
▁चै	-1843
▁वन	-1844
▁रन	-1845
मे	-1846
▁बराब	-1847
▁सभापति	-1848
स्तान	-1849
एसपी	-1850
▁बाहिर	-1851
सम्बन्धी	-1852
▁बोर्ड	-1853
▁ल्याएको	-1854
▁साल	-1855
बिर	-1856
ची	-1857
अन्त	-1858
▁छौं	-1859
धीश	-1860
▁टे	-1861
▁किन	-1862
कुल	-1863
▁कुल	-1864
▁सदर	-1865
स्ती	-1866
▁थिइन्	-1867
▁नव	-1868
▁६०	-1869
ङमा	-1870
्वा	-1871
▁श्रम	-1872
मको	-1873
▁३५	-1874
▁संकलन	-1875
▁अझै	-1876
ेश्व	-1877
▁निरीक्षक	-1878
▁चिनियाँ	-1879
गो	-1880
▁अवसरमा	-1881
▁खेलाडी	-1882
▁आश	-1883
▁२३	-1884
▁प्रहार	-1885
▁२६	-1886
टै	-1887
▁जोखिम	-1888
▁शुरु	-1889
▁प्रभावित	-1890
▁ट्रा	-1891
▁घि	-1892
▁भो	-1893
रीमा	-1894
गमन	-1895
▁यसको	-1896
▁पुरस्कार	-1897
▁केसी	-1898
▁उपत्य	-1899
▁आउ	-1900
▁स्थित	-1901
स्थान	-1902
▁गति	-1903
ग्रा	-1904
िल्लो	-1905
▁एन	-1906
▁सिफारि	-1907
शाख	-1908
▁२७	-1909
▁मना	-1910
▁भक्तपुर	-1911
▁लकड	-1912
▁डो	-1913
ानो	-1914
▁गै	-1915
▁सहज	-1916
▁प्रविधि	-1917
▁पुष्	-1918
मुकाम	-1919
▁राखेको	-1920
ण्टा	-1921
▁उपभ	-1922
▁कार्यान्वयन	-1923
▁हात	-1924
▁खुला	-1925
रुष	-1926
ममा	-1927
द्वारा	-1928
▁सर्वो	-1929
▁फर्क	-1930
माल	-1931
▁घु	-1932
▁कलेज	-1933
▁गराउने	-1934
अन्तर्गत	-1935
भु	-1936
▁लिने	-1937
त्कार	-1938
▁विस्तार	-1939
▁वार्ता	-1940
याधीश	-1941
▁शाह	-1942
लाल	-1943
▁कर्जा	-1944
▁सुझा	-1945
२०	-1946
मेन्ट	-1947
मका	-1948
▁यही	-1949
चार्य	-1950
▁लक्ष्य	-1951
मले	-1952
▁मानव	-1953
▁उपत्यका	-1954
रिष्ठ	-1955
zwj	-1956
▁चाह	-1957
णिज्य	-1958
▁मिटर	-1959
▁भुक्त	-1960
▁अधिकारीले	-1961
▁गरिरहेका	-1962
बालिका	-1963
तिर	-1964
लर	-1965
▁साह	-1966
▁हर	-1967
▁अन्तर्गत	-1968
▁सुधार	-1969
▁गरेकी	-1970
▁जीवन	-1971
▁नगद	-1972
▁ग्राहक	-1973
सान	-1974
▁राम्रो	-1975
▁लगायतका	-1976
▁बला	-1977
▁उद्धार	-1978
▁कस	-1979
ित्त	-1980
प्प	-1981
▁संक्रमित	-1982
▁गएका	-1983
▁थालेको	-1984
ट्टा	-1985
▁सम्बोधन	-1986
▁सञ्चार	-1987
बाइ	-1988
हेक	-1989
▁सदरमुकाम	-1990
▁गराउन	-1991
▁चुनाव	-1992
शील	-1993
िन	-1994
▁ग्र	-1995
▁तथ	-1996
▁हुनु	-1997
ल्दै	-1998
▁प्रतिष्ठ	-1999
▁सहा	-2000
▁ललित	-2001
▁डु	-2002
▁पुनः	-2003
मिका	-2004
▁चिकित्सक	-2005
▁सम्मान	-2006
▁पुरुष	-2007
▁प्या	-2008
▁प्रयास	-2009
लाको	-2010
शाखा	-2011
▁विश्वास	-2012
▁दर	-2013
▁राहत	-2014
▁कार्की	-2015
▁फर्कि	-2016
▁समितिका	-2017
▁पस	-2018
▁घण्टा	-2019
रेको	-2020
▁मोटरसाइकल	-2021
शन	-2022
▁चल	-2023
▁उनीहरु	-2024
ताका	-2025
▁प्रमाण	-2026
स्थिति	-2027
▁आयोगले	-2028
▁दिइएको	-2029
▁निष्	-2030
कालीन	-2031
मार्फत	-2032
क्षित	-2033
छु	-2034
जेन्	-2035
▁अति	-2036
▁पाण्ड	-2037
धिवेश	-2038
▁खन	-2039
▁सञ्चालनमा	-2040
▁ऐन	-2041
▁जनाएका	-2042
▁नारायण	-2043
▁असार	-2044
▁झापा	-2045
दानी	-2046
▁च्या	-2047
▁महो	-2048
▁सर्वसा	-2049
रुवा	-2050
▁एयर	-2051
▁ट्या	-2052
▁मन्द	-2053
▁पूर्वा	-2054
▁कार्यालयका	-2055
▁लै	-2056
िकेट	-2057
▁भाइरस	-2058
▁शक्ति	-2059
तावरण	-2060
पुरमा	-2061
▁जन्	-2062
▁सर्वोच्च	-2063
भव	-2064
ाचार	-2065
▁नद	-2066
▁हरि	-2067
ुरो	-2068
▁सुझाव	-2069
▁पौडेलले	-2070
▁अल	-2071
सव	-2072
▁यी	-2073
गढी	-2074
▁उत्तर	-2075
चालन	-2076
▁जनक	-2077
त्रा	-2078
▁बताएको	-2079
▁अभाव	-2080
▁इलाका	-2081
▁बारेमा	-2082
▁बालबालिका	-2083
ध्या	-2084
▁चितवन	-2085
▁मोर्चा	-2086
▁२९	-2087
जुरी	-2088
▁छैनन्	-2089
▁पुष्प	-2090
▁कार्यरत	-2091
▁लागू	-2092
घाटन	-2093
▁सकेको	-2094
▁पुष्टि	-2095
▁मनो	-2096
▁कानुन	-2097
▁राजमार्ग	-2098
▁दिइ	-2099
▁तर्फबाट	-2100
▁गोली	-2101
▁परिवर्त	-2102
▁बताउँदै	-2103
▁जेठ	-2104
ेवारी	-2105
▁गराएको	-2106
▁वातावरण	-2107
विक	-2108
ेलु	-2109
▁महाशाखा	-2110
▁ताल	-2111
ोलि	-2112
भिड	-2113
▁विकेट	-2114
▁भुक्तानी	-2115
▁पढ	-2116
▁प्रेस	-2117
तका	-2118
▁थु	-2119
▁विदेशी	-2120
▁मन्त्रिपरिषद्	-2121
▁नसकेको	-2122
▁उनीहरुले	-2123
िकल	-2124
मिटेड	-2125
तह	-2126
▁शै	-2127
▁समाधान	-2128
▁खाने	-2129
▁डी	-2130
टको	-2131
▁बलि	-2132
▁राजदू	-2133
णी	-2134
▁प्	-2135
्रे	-2136
माओवादी	-2137
▁तस्बिर	-2138
▁आप	-2139
द्धा	-2140
विद्यालय	-2141
▁प्रस्तुत	-2142
▁इन्टर	-2143
ल्प	-2144
▁पेट	-2145
▁हरा	-2146
▁होइन	-2147
देश्य	-2148
▁बच	-2149
▁क्षम	-2150
▁समुदाय	-2151
पूर्ति	-2152
▁रोग	-2153
▁जिम्मेवारी	-2154
▁लिमिटेड	-2155
▁भै	-2156
▁अग्र	-2157
▁ढकाल	-2158
▁हट	-2159
िल	-2160
▁त्यसको	-2161
▁भवन	-2162
▁राखेर	-2163
▁सन्त	-2164
▁सशस्त्र	-2165
▁उम्मेदवार	-2166
न्तरण	-2167
▁सामग्री	-2168
▁गौतम	-2169
मिटर	-2170
▁राजधानी	-2171
▁ब्य	-2172
१९	-2173
▁देउवा	-2174
▁सम्बन्धित	-2175
▁तामाङ	-2176
▁ठाउँमा	-2177
ल्य	-2178
▁औषधि	-2179
▁ठक्	-2180
योजन	-2181
▁महत्व	-2182
▁माध्य	-2183
चान	-2184
▁विद्युत्	-2185
▁टिम	-2186
▁भइसकेको	-2187
▁पारित	-2188
्मी	-2189
▁पुग्ने	-2190
▁सञ्चालक	-2191
▁गुरुङ	-2192
▁प्रावि	-2193
घु	-2194
▁दाहालले	-2195
▁सर्वसाधारण	-2196
न्तिपुर	-2197
▁सम्भावना	-2198
न्वय	-2199
डिया	-2200
▁संरक्षण	-2201
नन्	-2202
▁अरु	-2203
▁खोजी	-2204
पान	-2205
▁बालिका	-2206
जर	-2207
ारु	-2208
ित्व	-2209
▁वाणिज्य	-2210
▁उम	-2211
▁हामीले	-2212
तावास	-2213
▁प्रतिष्ठान	-2214
रीय	-2215
▁यादवले	-2216
एकाले	-2217
▁अहिलेसम्म	-2218
▁कामदार	-2219
▁आउन	-2220
▁विद्युत	-2221
▁आगलाग	-2222
▁भूमिका	-2223
▁मेड	-2224
▁०	-2225
▁किसान	-2226
▁अदालतले	-2227
सँगको	-2228
▁वरिष्ठ	-2229
▁निगम	-2230
फ्	-2231
▁विभागले	-2232
न्दु	-2233
▁मिनेटमा	-2234
सिंह	-2235
▁प्राथ	-2236
▁कित्	-2237
▁फाइ	-2238
▁सहकारी	-2239
कृष्ट	-2240
▁मोबाइ	-2241
▁रोजगारी	-2242
▁पार्टीका	-2243
दल	-2244
रका	-2245
▁वार्ष	-2246
्रष्ट	-2247
▁निकै	-2248
पोर्ट	-2249
नगर	-2250
▁नौ	-2251
▁अनुमान	-2252
▁समन्वय	-2253
।&	-2254
▁की	-2255
▁क्षेत्रको	-2256
▁घिमि	-2257
▁प्रतिवेदन	-2258
दे	-2259
▁भण्डारी	-2260
▁गुमा	-2261
सिक	-2262
चित	-2263
▁सरकारलाई	-2264
▁बैंकका	-2265
नौ	-2266
वाल	-2267
ल्ली	-2268
▁सचिवालय	-2269
▁लो	-2270
▁नाफा	-2271
▁चन्द्र	-2272
▁लाग्ने	-2273
▁भिडियो	-2274
▁भनिएको	-2275
▁प्राथमिक	-2276
▁बलात्कार	-2277
▁बराम	-2278
▁राजी	-2279
▁हुनुपर्ने	-2280
▁ठक्कर	-2281
भू	-2282
▁आफ्नै	-2283
▁पुल	-2284
▁बाबु	-2285
▁आरोपमा	-2286
▁चैत	-2287
▁अनुमति	-2288
ेलिक	-2289
▁अघ	-2290
▁राख्ने	-2291
▁स्पष्ट	-2292
यता	-2293
▁लाइ	-2294
▁निरन्तर	-2295
स्थलमा	-2296
म्बु	-2297
ढे	-2298
▁पशु	-2299
▁३१	-2300
▁जम्मा	-2301
▁साधारण	-2302
▁मन्त्रालयका	-2303
▁कमा	-2304
संग	-2305
▁स्त	-2306
▁बनाएर	-2307
▁बताइन्	-2308
न्तरिक	-2309
▁धार	-2310
▁सिफारिस	-2311
▁आमा	-2312
▁कर्ण	-2313
▁बोला	-2314
च्छ	-2315
▁क्षेत्रका	-2316
वटा	-2317
▁आयात	-2318
थो	-2319
▁पराजित	-2320
ेले	-2321
▁लिएका	-2322
▁पर्व	-2323
िङ	-2324
▁जुन	-2325
▁दिव	-2326
▁सहभागि	-2327
खो	-2328
▁कसै	-2329
▁बम	-2330
जो	-2331
सू	-2332
▁सम्पूर्ण	-2333
▁जिल्लाको	-2334
▁प्राविधिक	-2335
यल	-2336
▁भण्डार	-2337
▁लगाएको	-2338
▁बहु	-2339
मीले	-2340
▁उद्घाटन	-2341
▁सुना	-2342
कमल	-2343
▁संसद्	-2344
▁साधन	-2345
▁नक्	-2346
▁नप	-2347
▁महानगरपालिका	-2348
डो	-2349
ेश्वर	-2350
▁प्रच	-2351
▁सञ्ज	-2352
▁३२	-2353
▁पाएको	-2354
▁मज	-2355
▁बरामद	-2356
्दा	-2357
▁गोर	-2358
▁हाम्रो	-2359
प्रधानमन्त्री	-2360
▁हालसम्म	-2361
▁७०	-2362
▁उपभो	-2363
▁आजको	-2364
ङका	-2365
▁शिव	-2366
▁होटल	-2367
▁खान	-2368
▁पूर्वाधार	-2369
▁क्वार	-2370
दय	-2371
▁संस्	-2372
हाज	-2373
▁पश्चिम	-2374
▁कोरिया	-2375
▁आन्तरिक	-2376
▁पाकि	-2377
▁नर	-2378
्रोल	-2379
▁उजुरी	-2380
▁क्रिकेट	-2381
▁प्रे	-2382
▁आचार्य	-2383
▁वैशाख	-2384
▁४५	-2385
वडा	-2386
▁स्थग	-2387
▁गुना	-2388
▁सम्मेलनमा	-2389
▁उद्देश्य	-2390
न्धु	-2391
देवी	-2392
▁वर्षमा	-2393
बाटै	-2394
▁दिँदै	-2395
▁लागेका	-2396
▁आगो	-2397
▁मिला	-2398
दिन	-2399
नाले	-2400
ेरी	-2401
▁हरेक	-2402
▁प्रणाली	-2403
▁ल्याउन	-2404
▁विश्वविद्यालय	-2405
▁त्यसपछि	-2406
न्टर	-2407
ौला	-2408
▁कला	-2409
▁नियुक्त	-2410
वाई	-2411
स्पर्	-2412
▁शुल्क	-2413
भी	-2414
▁पेश	-2415
▁शी	-2416
देशिक	-2417
▁भन्सार	-2418
▁ब्याज	-2419
▁प्रतिशतले	-2420
▁उनीहरुलाई	-2421
▁माघ	-2422
▁पुष्पकमल	-2423
▁कट	-2424
▁धु	-2425
▁सामान	-2426
▁गठ	-2427
▁प्रश्न	-2428
▁दायर	-2429
न्थ	-2430
▁ललितपुर	-2431
कुर	-2432
▁मोर	-2433
▁उपभोक्ता	-2434
मात्र	-2435
▁मौसम	-2436
▁युनि	-2437
▁साइ	-2438
▁भर्ना	-2439
▁फु	-2440
▁दलका	-2441
▁गर्छ	-2442
लगायतका	-2443
क्न	-2444
▁भ्रष्ट	-2445
न्त्रिक	-2446
▁उत्कृष्ट	-2447
▁बाट	-2448
▁भरत	-2449
▁सभामुख	-2450
▁लकडाउन	-2451
▁आत्म	-2452
▁प्रशि	-2453
▁आफूले	-2454
▁थान	-2455
▁नपा	-2456
▁प्रतिस्पर्	-2457
▁ठा	-2458
ेन्स	-2459
▁नेतृत्वको	-2460
▁कित्ता	-2461
▁बल	-2462
▁भनेको	-2463
▁ल्याउने	-2464
▁पे	-2465
▁लिग	-2466
घाट	-2467
▁माइ	-2468
▁परिवर्तन	-2469
▁राख्न	-2470
▁न्याय	-2471
▁तथ्या	-2472
फिक	-2473
▁मानिस	-2474
▁छोरी	-2475
▁विमानस्थल	-2476
क्षेप	-2477
न्छन्	-2478
▁सम्मेलन	-2479
▁साढे	-2480
▁सन्द	-2481
▁सप्त	-2482
क्षर	-2483
▁विप	-2484
▁विगत	-2485
▁अवधिमा	-2486
▁किलोमिटर	-2487
त्तै	-2488
▁छाड	-2489
▁प्रो	-2490
▁मेडिकल	-2491
हरा	-2492
▁आम्	-2493
▁पुँजी	-2494
▁उनीहरुको	-2495
▁पदाधिका	-2496
▁फागु	-2497
▁सम्पर्क	-2498
टीले	-2499
ज्ञा	-2500
▁गुनासो	-2501
▁बराबरको	-2502
▁पारेको	-2503
▁अन्त्य	-2504
▁८०	-2505
▁भौ	-2506
▁दिनमा	-2507
▁खण्ड	-2508
▁बीच	-2509
दैन	-2510
एफ	-2511
उनु	-2512
चित्र	-2513
▁पदार्थ	-2514
्वी	-2515
▁छानबि	-2516
्यास	-2517
▁एम	-2518
▁मोबाइल	-2519
▁अवरुद्ध	-2520
▁आँ	-2521
▁अनुगमन	-2522
म्बा	-2523
;,	-2524
▁नियमित	-2525
▁भट्टराईले	-2526
▁यू	-2527
▁संगठन	-2528
समि	-2529
डमा	-2530
्रु	-2531
▁छिन्	-2532
सहितको	-2533
▁वार्षिक	-2534
ानु	-2535
क्रिय	-2536
▁चौधरी	-2537
विद	-2538
श्वर	-2539
जिम	-2540
तिवडा	-2541
▁लगानीकर्ता	-2542
▁एक्	-2543
▁सङ्घ	-2544
▁सकिन्छ	-2545
▁जनाए	-2546
ँडा	-2547
वाही	-2548
▁धारणा	-2549
▁जिल्लाका	-2550
▁खबर	-2551
▁निर्वाचित	-2552
▁एकै	-2553
्यू	-2554
ल्ट	-2555
▁ध्यान	-2556
दाता	-2557
ङ्क	-2558
▁यात्रा	-2559
निर्माण	-2560
▁ढि	-2561
ेसन	-2562
▁आम्दानी	-2563
▁सिन्धु	-2564
सिर	-2565
▁लामा	-2566
तिहा	-2567
▁खतिवडा	-2568
▁शर्माले	-2569
मत	-2570
भिजन	-2571
पश्चिम	-2572
ीलाई	-2573
▁३३	-2574
▁वस्तु	-2575
▁पार्टीको	-2576
त्सव	-2577
▁सामु	-2578
▁गाविस	-2579
लका	-2580
पचार	-2581
तान्त्रिक	-2582
▁दम	-2583
▁गरिएका	-2584
▁गोरखा	-2585
लेपछि	-2586
उँछन्	-2587
खेल	-2588
चन्द्र	-2589
▁घिमिरे	-2590
ाएका	-2591
▁इन्टरने	-2592
▁आम	-2593
▁विज्ञप्तिमा	-2594
वनी	-2595
▁लाभा	-2596
▁सडकमा	-2597
बन्दी	-2598
▁राजदूत	-2599
▁कुट	-2600
▁आफन्त	-2601
▁राजीनामा	-2602
▁कक्षा	-2603
सला	-2604
▁चन्द	-2605
मोजिम	-2606
▁शीर्ष	-2607
मार्ट	-2608
▁खस	-2609
▁मार्फत	-2610
चेत	-2611
श्	-2612
▁अन्न	-2613
▁सेयर	-2614
▁बाध्य	-2615
▁त्यही	-2616
▁गराएका	-2617
प्ता	-2618
▁कालो	-2619
▁साउ	-2620
▁अधिकांश	-2621
▁महासचिव	-2622
ालको	-2623
रोह	-2624
▁सहायक	-2625
▁पहिचान	-2626
▁नभए	-2627
▁अघिल्लो	-2628
लिन	-2629
टाले	-2630
▁नेतृत्वमा	-2631
िने	-2632
ारम्भ	-2633
महान	-2634
▁भत्	-2635
▁लघु	-2636
गरीय	-2637
▁अदालतमा	-2638
▁नसक्ने	-2639
पक्षी	-2640
▁असर	-2641
▁एजेन्	-2642
▁भएकी	-2643
▁देशका	-2644
सक्ने	-2645
▁क्याम्प	-2646
▁बंग	-2647
▁भ्रष्टाचार	-2648
▁मेला	-2649
▁कुमार	-2650
टे	-2651
लादेश	-2652
▁पेट्रोल	-2653
▁संविधानसभा	-2654
▁कान्तिपुर	-2655
धिकार	-2656
▁चरणमा	-2657
▁डलर	-2658
मल	-2659
▁शिक्षक	-2660
▁पुनर्	-2661
जाय	-2662
▁पाल	-2663
▁जहाज	-2664
पत	-2665
▁दिल्ली	-2666
स्तरीय	-2667
मिला	-2668
▁यसले	-2669
▁फोर	-2670
▁सहकार्य	-2671
▁पहा	-2672
ीकरण	-2673
▁जाँदै	-2674
▁नजिकै	-2675
एल	-2676
▁हस्तान्तरण	-2677
श्चित	-2678
दन	-2679
ानि	-2680
रासी	-2681
▁सुनस	-2682
शि	-2683
▁कसरी	-2684
सित	-2685
षण	-2686
खेत	-2687
▁गुण	-2688
▁भनिन्	-2689
▁दूतावास	-2690
▁निवास	-2691
▁स्या	-2692
▁बसेका	-2693
▁स्वदेश	-2694
▁फरार	-2695
▁ज्ञा	-2696
च्चा	-2697
लीको	-2698
▁।”	-2699
▁समर्थ	-2700
शुल्क	-2701
नुभएको	-2702
ाउनु	-2703
▁जनकपुर	-2704
रुपयोग	-2705
▁मं	-2706
▁७५	-2707
▁मगर	-2708
▁थाहा	-2709
▁धरान	-2710
▁म्याद	-2711
सम्मको	-2712
हण	-2713
▁न्यायाधीश	-2714
▁परराष्ट्र	-2715
▁थाल	-2716
कृतिक	-2717
समिति	-2718
चार्ज	-2719
दीको	-2720
ल्लाह	-2721
▁फुटबल	-2722
▁कम्	-2723
▁दुरुपयोग	-2724
▁राउ	-2725
▁न्यून	-2726
▁स्थगित	-2727
▁मधेसी	-2728
▁आगलागी	-2729
▁नायब	-2730
▁संसदीय	-2731
▁भण्डारीले	-2732
▁रहे	-2733
▁सैनिक	-2734
▁इज	-2735
▁खेत	-2736
ुप	-2737
▁विजयी	-2738
्युनि	-2739
▁जनाइएको	-2740
लीमा	-2741
मन्त्रीले	-2742
वाफ	-2743
▁सुनि	-2744
▁पहल	-2745
▁ट्रम्प	-2746
▁सके	-2747
▁छन	-2748
▁वे	-2749
▁कोभिड	-2750
ट्टै	-2751
▁सरो	-2752
रुपमा	-2753
दौ	-2754
▁शेर	-2755
▁गतेसम्म	-2756
▁बेप	-2757
▁क्वारेन्ट	-2758
प्टर	-2759
ंसा	-2760
▁कांग्रेसका	-2761
▁छनो	-2762
नीति	-2763
▁हेट	-2764
पय	-2765
▁त्यसैगरी	-2766
राग	-2767
पूर्व	-2768
▁रम	-2769
लोक	-2770
▁मले	-2771
▁सजाय	-2772
▁फेरि	-2773
▁काउ	-2774
▁भाडा	-2775
▁महानगरीय	-2776
▁बताउ	-2777
▁लाई	-2778
स्को	-2779
▁मध्ये	-2780
पित	-2781
▁संरचना	-2782
▁दर्श	-2783
▁रौ	-2784
▁फागुन	-2785
▁श्रीमती	-2786
▁स्वतन्त्र	-2787
लै	-2788
▁अर्का	-2789
र्सि	-2790
▁स्थायी	-2791
▁बुट	-2792
▁समूहले	-2793
सिय	-2794
पाई	-2795
ेलले	-2796
▁हिमाल	-2797
▁आर	-2798
▁चेता	-2799
पुग	-2800
▁जापान	-2801
▁निर्वाचनमा	-2802
सोज	-2803
▁आवेद	-2804
▁बर्दि	-2805
▁कडा	-2806
▁सुरक्षित	-2807
यमा	-2808
ेलिया	-2809
▁उपाधि	-2810
▁मृतक	-2811
▁महेन्द्र	-2812
चौ	-2813
▁चलचित्र	-2814
ेदार	-2815
▁पश्च	-2816
पात	-2817
▁माल	-2818
न्तु	-2819
▁एकता	-2820
ारो	-2821
▁प्रतिस्पर्धा	-2822
पथ	-2823
▁बोक	-2824
▁नो	-2825
▁पास	-2826
पचारिक	-2827
▁विभागका	-2828
▁स्थानीयले	-2829
▁मेस	-2830
▁इट	-2831
▁कैला	-2832
▁माथि	-2833
▁-	-2834
▁परिषद्	-2835
▁ट्राफिक	-2836
▁प्रतिबद्ध	-2837
र्ती	-2838
▁चेतावनी	-2839
कारा	-2840
क्रो	-2841
रीका	-2842
लाइन	-2843
▁वर्षदेखि	-2844
भुवन	-2845
▁नवल	-2846
▁प्रहरीका	-2847
▁घटनास्थल	-2848
विन्द	-2849
▁छानबिन	-2850
▁२००	-2851
▁बेपत्ता	-2852
▁पाकिस्तान	-2853
गढ	-2854
▁जवाफ	-2855
▁पहिले	-2856
गाउँ	-2857
▁कमि	-2858
▁साउन	-2859
▁सहभागिता	-2860
▁जन्म	-2861
ल्यान्ड	-2862
▁५५	-2863
तीमा	-2864
▁अभियोग	-2865
ष्णु	-2866
जे	-2867
▁आफूलाई	-2868
▁योगदान	-2869
▁बद	-2870
▁बालुवा	-2871
▁ब्रा	-2872
▁सम्बन्धमा	-2873
▁धादि	-2874
▁कप	-2875
▁ठूला	-2876
▁नसक	-2877
पाने	-2878
▁पुस	-2879
▁शुभ	-2880
▁चुक्ता	-2881
ञ्चन	-2882
▁भाषा	-2883
▁विज्ञान	-2884
▁बुढा	-2885
▁तरकारी	-2886
▁नब	-2887
▁असोज	-2888
▁एक्स	-2889
ँगै	-2890
▁पठाएको	-2891
▁।&	-2892
▁सक्छ	-2893
▁महानि	-2894
▁मल्	-2895
▁मतदान	-2896
▁गतेदेखि	-2897
▁धर्म	-2898
▁बढाउन	-2899
▁सक्रिय	-2900
▁काग	-2901
पद	-2902
▁लाभांश	-2903
▁विनि	-2904
▁देशको	-2905
राष्ट्रिय	-2906
▁भाइरसको	-2907
▁उमेर	-2908
ेटि	-2909
म्बर	-2910
रामा	-2911
▁राखेका	-2912
▁मुख्यमन्त्री	-2913
टिङ	-2914
▁सम्बन्धी	-2915
न्ता	-2916
▁केसीले	-2917
▁पक्षमा	-2918
▁क्षमता	-2919
▁भेटिएको	-2920
▁यसैगरी	-2921
’,	-2922
▁किश	-2923
▁रोजगार	-2924
▁लगाउने	-2925
▁विरुद्ध	-2926
भारत	-2927
▁टेलि	-2928
कर्षण	-2929
▁पठाइएको	-2930
▁न्यौ	-2931
र्कीले	-2932
▁अपराध	-2933
▁तालिम	-2934
दायिक	-2935
▁त्रिभुवन	-2936
प्से	-2937
स्ट्र	-2938
▁सम्पत्ति	-2939
▁गतिविधि	-2940
्नु	-2941
▁तु	-2942
लन	-2943
▁राजस्व	-2944
▁कतिपय	-2945
नाई	-2946
धानिक	-2947
▁कारवाही	-2948
▁कम्युनि	-2949
दछ	-2950
▁लघुव	-2951
▁गरिसकेको	-2952
क्य	-2953
▁पाएका	-2954
▁९०	-2955
▁प्रतियोगितामा	-2956
▁फे	-2957
ण्डकी	-2958
▁त्र	-2959
▁अत्या	-2960
डे	-2961
▁हस्ताक्षर	-2962
▁दृ	-2963
▁कमज	-2964
▁जरि	-2965
▁दबा	-2966
▁सिर्	-2967
▁अवसर	-2968
एक	-2969
र्ब	-2970
वाट	-2971
व्र	-2972
▁मैदान	-2973
बाहेक	-2974
▁रेग्	-2975
प्ले	-2976
▁धित	-2977
▁न्यौपाने	-2978
▁काठमाडौंमा	-2979
▁प्रेम	-2980
▁घटनामा	-2981
▁मन्दिर	-2982
▁सङ्क्रमण	-2983
र्पा	-2984
▁निधन	-2985
विद्यु	-2986
▁देखिन्छ	-2987
▁बाढी	-2988
तर	-2989
▁ठे	-2990
▁दर्जन	-2991
कारात्मक	-2992
द्व	-2993
▁प्रत्येक	-2994
र्दा	-2995
▁रेल	-2996
▁यस्ता	-2997
▁गर्नेछ	-2998
▁चेक	-2999
वाना	-3000
आइ	-3001
▁तोकिएको	-3002
▁उपमहान	-3003
फाइ	-3004
कलाई	-3005
▁बुद्ध	-3006
धिवेशन	-3007
▁टुंग	-3008
▁नेपालगन्ज	-3009
सिल	-3010
▁पोखरेलले	-3011
षद	-3012
▁कैद	-3013
▁महत्वपूर्ण	-3014
▁प्रतियोगिता	-3015
▁छिम	-3016
▁तराई	-3017
▁जनताको	-3018
▁भदौ	-3019
▁हिम	-3020
▁भौतिक	-3021
▁भे	-3022
ठी	-3023
▁कांग्रेसले	-3024
ञ्चल	-3025
▁पुगेर	-3026
▁कोइरालाले	-3027
उनले	-3028
▁जाँच	-3029
▁जिम्मा	-3030
मन	-3031
▁समारोह	-3032
▁उपस्थित	-3033
▁एका	-3034
हुँ	-3035
▁विवाह	-3036
▁निम्	-3037
▁साना	-3038
▁मर्म	-3039
▁रंग	-3040
▁जस्ता	-3041
▁फाइन	-3042
▁चौकी	-3043
ंकर	-3044
▁यसमा	-3045
▁सल्लाह	-3046
ण्डा	-3047
▁भारतले	-3048
र्भ	-3049
▁चर्चा	-3050
▁परिचालन	-3051
▁पदाधिकारी	-3052
वसा	-3053
▁फैसला	-3054
▁डुब	-3055
▁३६	-3056
▁&#39;	-3057
▁गैर	-3058
क्ट	-3059
▁पसल	-3060
▁चोरी	-3061
▁हतियार	-3062
शाला	-3063
▁विजय	-3064
▁तत्कालीन	-3065
सेवा	-3066
▁भूमि	-3067
▁उनीहरू	-3068
▁निर्माणका	-3069
▁भीम	-3070
▁कार्कीले	-3071
▁कञ्चन	-3072
▁२०६	-3073
▁निर्माणको	-3074
▁विजेता	-3075
▁फरक	-3076
्याम	-3077
▁आएपछि	-3078
▁प्रारम्भ	-3079
माव	-3080
वनमा	-3081
▁हुँदैन	-3082
ग्राही	-3083
▁जस्तो	-3084
▁अनुदान	-3085
▁सिर्जना	-3086
▁बनाइ	-3087
▁प्रचण्ड	-3088
▁बोल्दै	-3089
टार	-3090
▁सामुदायिक	-3091
ोध	-3092
▁पर्छ	-3093
▁पुस्त	-3094
▁मिति	-3095
▁समावेश	-3096
▁आपूर्ति	-3097
▁जग	-3098
▁एकजना	-3099
लम्ब	-3100
▁महिनामा	-3101
▁अवै	-3102
▁बताउँछन्	-3103
▁व्यवस्थाप	-3104
ामा	-3105
हरण	-3106
हित्य	-3107
▁बस्दै	-3108
▁बिदा	-3109
▁खानेपानी	-3110
नाको	-3111
▁खुलेको	-3112
पुरको	-3113
▁सञ्जाल	-3114
साथ	-3115
▁स्थिति	-3116
▁सिर	-3117
पुरका	-3118
▁अन्नपूर्ण	-3119
▁आवेदन	-3120
▁प्रकाशित	-3121
▁जनाले	-3122
▁परियोजना	-3123
▁प्रतिनिधिसभा	-3124
सिन्दा	-3125
▁उहाँले	-3126
▁प्रत्यक्ष	-3127
▁३४	-3128
▁खाना	-3129
▁पुर्या	-3130
द्द	-3131
,&	-3132
▁हक	-3133
बेला	-3134
▁बेलायत	-3135
ाउनुपर्ने	-3136
▁बोनस	-3137
▁लैजा	-3138
हरूमा	-3139
▁मेरो	-3140
▁बन्ने	-3141
▁थालेका	-3142
▁अर्थमन्त्री	-3143
चक	-3144
▁नआ	-3145
▁छनोट	-3146
▁यसलाई	-3147
वधान	-3148
▁नारा	-3149
औं	-3150
▁आयोजनाको	-3151
▁रिपोर्ट	-3152
▁फोटो	-3153
▁जरिवाना	-3154
▁दिनको	-3155
▁राईले	-3156
▁नहुँदा	-3157
▁जलविद्यु	-3158
▁प्रहरीलाई	-3159
जिनि	-3160
▁जुट	-3161
क्षिक	-3162
▁भारतमा	-3163
▁यति	-3164
▁विष्णु	-3165
▁नति	-3166
▁अर्य	-3167
्र्	-3168
▁सूर्य	-3169
विन	-3170
▁बनेका	-3171
ल्पा	-3172
▁सुनु	-3173
▁भएपनि	-3174
ियम	-3175
कृष्ण	-3176
▁उनीहरूले	-3177
▁सरकारका	-3178
▁काभ	-3179
▁नुवा	-3180
▁राजेन्द्र	-3181
परासी	-3182
▁लगाए	-3183
ल्ड	-3184
▁लागेर	-3185
▁उत्र	-3186
▁खट	-3187
▁मुलुकमा	-3188
▁सुर्	-3189
▁यसका	-3190
▁२०७५	-3191
▁संस्कृति	-3192
नू	-3193
विराज	-3194
▁द्व	-3195
▁व्यक्तिको	-3196
▁पारि	-3197
▁आवश्यकता	-3198
चन	-3199
▁घटनाको	-3200
▁वैदेशिक	-3201
▁ते	-3202
▁बारा	-3203
दिने	-3204
ाइनमा	-3205
▁देशमा	-3206
ैमा	-3207
▁मण्ड	-3208
▁रक्षा	-3209
▁एजेन्सी	-3210
कुद	-3211
▁ठो	-3212
बजार	-3213
▁संघका	-3214
▁संस्थाले	-3215
बीचको	-3216
▁कोठा	-3217
न्दे	-3218
▁दलको	-3219
न्ह	-3220
▁त्यसमा	-3221
खर	-3222
दारी	-3223
▁सापको	-3224
▁गोविन्द	-3225
▁देशभर	-3226
▁मंसिर	-3227
▁बंगलादेश	-3228
▁स्वागत	-3229
गरमा	-3230
राले	-3231
▁हवाई	-3232
▁साहित्य	-3233
▁तहको	-3234
▁बढ्ने	-3235
▁बढाउने	-3236
▁दबाब	-3237
▁६५	-3238
श्र	-3239
▁आह	-3240
▁भोज	-3241
▁त्यसैले	-3242
ेली	-3243
▁कल	-3244
▁शैक्षिक	-3245
गञ्ज	-3246
।’	-3247
दीप	-3248
▁दिएर	-3249
कुमारी	-3250
▁ल्याइएको	-3251
▁झु	-3252
▁शेर्पा	-3253
▁उदय	-3254
ोका	-3255
मित	-3256
कली	-3257
फोट	-3258
▁३८	-3259
▁भनेका	-3260
▁मिनेट	-3261
▁सिंहले	-3262
गी	-3263
यस	-3264
क्दा	-3265
▁तहमा	-3266
त्ती	-3267
▁खेलकुद	-3268
▁बह	-3269
▁चीनको	-3270
▁लगाएका	-3271
▁क्षेत्रीय	-3272
लिएको	-3273
▁न्यु	-3274
फर	-3275
▁कलाकार	-3276
▁प्रतिबद्धता	-3277
▁लक्ष्मी	-3278
लिक	-3279
पण	-3280
▁कमल	-3281
बे	-3282
त्न	-3283
▁चोक	-3284
▁अस्	-3285
▁छौँ	-3286
▁बन्न	-3287
▁गुरुङले	-3288
ाएर	-3289
राको	-3290
नेर	-3291
▁चाहि	-3292
▁प्रबन्ध	-3293
▁महतो	-3294
▁४२	-3295
टीमा	-3296
▁विष्ट	-3297
▁कठ	-3298
▁काममा	-3299
किङ	-3300
▁निर्धारण	-3301
▁प्रचार	-3302
▁मलेसिया	-3303
▁पाइएको	-3304
▁३७	-3305
ाइने	-3306
▁थिएन	-3307
▁सचेत	-3308
▁सेन्टर	-3309
▁महिलाको	-3310
▁सिरहा	-3311
▁गृहमन्त्री	-3312
▁जय	-3313
▁हेर	-3314
▁सवार	-3315
▁धितो	-3316
▁त्यसलाई	-3317
▁महोत्सव	-3318
▁छै	-3319
खण्ड	-3320
▁पूजा	-3321
▁समेट	-3322
▁विश्वक	-3323
डिङ	-3324
▁रमेश	-3325
▁कानुनी	-3326
वानी	-3327
▁उपस्थिति	-3328
▁नगर्ने	-3329
▁नवलपरासी	-3330
क्रा	-3331
▁होट	-3332
वाला	-3333
▁दैनिकमा	-3334
▁कम्पनीका	-3335
▁मिल्	-3336
▁मेगा	-3337
वाइ	-3338
▁लागिएको	-3339
▁एसपी	-3340
वार्ड	-3341
▁अत्य	-3342
▁अर्थतन्त्र	-3343
प्रमुख	-3344
चु	-3345
▁वर्षका	-3346
▁पार्टीले	-3347
ओवाद	-3348
▁माथ	-3349
),	-3350
▁,	-3351
ाइड	-3352
ालीमा	-3353
▁अनुरोध	-3354
प्रपा	-3355
▁खड्काले	-3356
▁परिसर	-3357
▁लोकतान्त्रिक	-3358
▁औपचारिक	-3359
▁वीरगन्ज	-3360
▁गणेश	-3361
▁प्रजा	-3362
भे	-3363
▁नदीमा	-3364
▁कर्णाली	-3365
▁सुनको	-3366
▁केन्द्रका	-3367
▁मिडिया	-3368
▁पृ	-3369
▁सेनाको	-3370
▁सुर्खेत	-3371
▁र्	-3372
▁खर्ब	-3373
▁विस्	-3374
▁अर्था	-3375
▁खाता	-3376
▁एमाओवादी	-3377
चे	-3378
▁बासिन्दा	-3379
▁आउँदै	-3380
▁कार्यालयको	-3381
▁माध्यम	-3382
▁नुवाकोट	-3383
▁सहयोगमा	-3384
▁पुग्	-3385
▁।‘	-3386
नारायण	-3387
▁धनगढी	-3388
▁आयोगको	-3389
▁पेस	-3390
▁प्रभावकारी	-3391
▁अभ	-3392
▁नियु	-3393
▁खेलको	-3394
विर	-3395
er	-3396
ङ्गा	-3397
मला	-3398
▁४८	-3399
▁केन्द्रमा	-3400
यन्त्र	-3401
डीमा	-3402
▁जेल	-3403
▁बसेर	-3404
पिट	-3405
▁शाही	-3406
्छ	-3407
▁बाबुराम	-3408
▁अध्या	-3409
▁ऊ	-3410
▁यसरी	-3411
ट्ने	-3412
र्तमान	-3413
▁काराग	-3414
पदण्ड	-3415
▁खोला	-3416
यिक	-3417
▁चयन	-3418
▁हित	-3419
▁स्म	-3420
▁गरिनेछ	-3421
डौं	-3422
द्या	-3423
▁स्रोत	-3424
▁नियुक्ति	-3425
▁रण	-3426
▁ट्रक	-3427
▁नायव	-3428
▁जोग	-3429
▁इजला	-3430
▁रहेकाले	-3431
हारी	-3432
▁डिज	-3433
▁लगाएर	-3434
▁छिमेकी	-3435
लाम	-3436
▁नरहेको	-3437
▁लड	-3438
▁खारे	-3439
सान्त	-3440
▁हिँड	-3441
▁मापदण्ड	-3442
▁रिय	-3443
▁म्यान	-3444
▁तथ्यांक	-3445
▁लगाइएको	-3446
आफ	-3447
जुन	-3448
▁रोक्न	-3449
▁घटेको	-3450
▁पूर्वी	-3451
ेलको	-3452
▁चुनौ	-3453
▁मजदुर	-3454
न्देही	-3455
▁गाँ	-3456
▁पुरा	-3457
सीसी	-3458
▁गाउँमा	-3459
जको	-3460
▁दोष	-3461
स्वा	-3462
डप	-3463
▁चढ	-3464
ाउँदा	-3465
▁रस	-3466
▁अग	-3467
होर	-3468
नाका	-3469
▁थालेपछि	-3470
टु	-3471
▁आए	-3472
▁नष्ट	-3473
▁बमोजिम	-3474
▁वर्तमान	-3475
▁फोन	-3476
▁कानू	-3477
▁घो	-3478
सरकार	-3479
उँदा	-3480
▁अवैध	-3481
▁नतिजा	-3482
▁प्रतिबन्ध	-3483
सामा	-3484
▁तोड	-3485
कवान	-3486
▁पोष्ट	-3487
▁भनी	-3488
▁माध	-3489
▁तुलनामा	-3490
पत्रमा	-3491
▁गए	-3492
हीन	-3493
▁गल	-3494
ट्या	-3495
▁चालू	-3496
▁बढाएको	-3497
▁राजविराज	-3498
नीको	-3499
▁प्रसार	-3500
▁रौतह	-3501
▁डीएसपी	-3502
▁गर्छन्	-3503
▁दाय	-3504
▁चौथो	-3505
▁महिनाको	-3506
किने	-3507
▁संक	-3508
▁मुद्दामा	-3509
▁मसान्त	-3510
▁दीपक	-3511
▁समितिमा	-3512
▁लामि	-3513
▁५१	-3514
▁बढ्दै	-3515
छाने	-3516
▁हुनेमा	-3517
▁कमजोर	-3518
कला	-3519
▁बढि	-3520
रिएको	-3521
▁नेप्से	-3522
जान	-3523
▁तल	-3524
▁उपमहानगरपालिका	-3525
▁चे	-3526
▁प्रकार	-3527
▁देउवाले	-3528
चर	-3529
दूर	-3530
ेमा	-3531
क्सी	-3532
ओवादीले	-3533
▁दिनदेखि	-3534
▁बाग	-3535
..	-3536
उँछ	-3537
▁वर्ग	-3538
फी	-3539
▁टिक	-3540
जुङ	-3541
▁सार	-3542
▁बढ्न	-3543
▁कवि	-3544
▁गर्नका	-3545
▁स्रोतले	-3546
त्तिक	-3547
▁निकट	-3548
स्योर	-3549
▁ब्र	-3550
▁भनाई	-3551
▁कार्ड	-3552
▁सकिएको	-3553
▁शेरबहादुर	-3554
▁संचाल	-3555
▁खनालले	-3556
वार्ता	-3557
▁लामिछाने	-3558
वनको	-3559
▁मुलुकको	-3560
यले	-3561
▁धनु	-3562
▁लगातार	-3563
रीत	-3564
▁टिप्प	-3565
▁तपाई	-3566
▁प्राधिकरणले	-3567
▁अवरोध	-3568
वैधानिक	-3569
व्या	-3570
स्की	-3571
▁अवार्ड	-3572
वत	-3573
▁मार्ग	-3574
बास	-3575
▁ठाकुर	-3576
▁आयोगका	-3577
▁सल	-3578
▁खनाल	-3579
▁२०७६	-3580
▁गर्नुपर्छ	-3581
▁ओभ	-3582
▁घुस	-3583
▁नगरपालिकाका	-3584
फाइन	-3585
▁विचार	-3586
▁४१	-3587
ौंडा	-3588
▁दावी	-3589
होस्	-3590
▁भेला	-3591
▁राप्रपा	-3592
▁नदी	-3593
▁भारतबाट	-3594
लिया	-3595
ेटिभ	-3596
▁संघले	-3597
▁सरोकार	-3598
▁त्यस्तो	-3599
उनुपर्ने	-3600
▁प्रधानमन्त्रीले	-3601
▁सेनाले	-3602
▁पुरानो	-3603
▁प्रदेशसभा	-3604
▁लागु	-3605
▁बताउनुभयो	-3606
नय	-3607
▁तलब	-3608
द्रा	-3609
▁शरी	-3610
मिन	-3611
ह्र	-3612
▁मकवान	-3613
▁निर्यात	-3614
▁खटि	-3615
▁प्रवाह	-3616
भित्रै	-3617
्वान	-3618
▁माधव	-3619
राष्ट्रपति	-3620
लुङ	-3621
▁महोत्त	-3622
▁एवम्	-3623
▁जब	-3624
▁क्रिया	-3625
▁परिवारलाई	-3626
▁आयोजनामा	-3627
वट	-3628
▁विधि	-3629
▁जाँदा	-3630
ल्याण्ड	-3631
▁मन्त्रालयको	-3632
▁टीका	-3633
al	-3634
टीको	-3635
▁बस्न	-3636
▁बेलु	-3637
▁नक्कली	-3638
▁सेवाग्राही	-3639
▁रिज	-3640
▁बुटवल	-3641
▁प्रदेशमा	-3642
▁खसेको	-3643
▁विकल्प	-3644
नीमा	-3645
्याउने	-3646
▁कात्तिक	-3647
ब्द	-3648
ियाली	-3649
▁निर्माणमा	-3650
ँस	-3651
▁३९	-3652
▁आफै	-3653
▁आयोजक	-3654
▁पार्ने	-3655
▁मेल	-3656
▁डिभिजन	-3657
▁ठेक्का	-3658
▁उपचारको	-3659
▁सूची	-3660
▁खतिवडाले	-3661
१०	-3662
▁ध्याना	-3663
▁संस्थाको	-3664
▁गाई	-3665
▁फ्रा	-3666
▁टिप्पणी	-3667
▁लघुवित्त	-3668
▁नगरी	-3669
रिय	-3670
▁नगरेको	-3671
जमा	-3672
▁सकारात्मक	-3673
वक्ता	-3674
घर	-3675
▁घरेलु	-3676
रिका	-3677
▁प्रशासनले	-3678
▁अभियोगमा	-3679
▁नेपालीको	-3680
▁पुनर्निर्माण	-3681
▁आधा	-3682
▁५२	-3683
फलमा	-3684
▁शिक्षण	-3685
▁वर्षअघि	-3686
लक	-3687
▁इन्स्योर	-3688
▁४३	-3689
▁ढकालले	-3690
▁फेस	-3691
▁निकु	-3692
▁धनुषा	-3693
▁अधि	-3694
हरुका	-3695
▁पदमा	-3696
चोक	-3697
▁डेढ	-3698
▁प्रावधान	-3699
▁है	-3700
र्या	-3701
▁बनाएका	-3702
नेको	-3703
▁अपना	-3704
क्षेत्र	-3705
▁मान्य	-3706
▁पाण्डे	-3707
ेलिकप्टर	-3708
▁इन्जिनि	-3709
▁प्रदेशको	-3710
भाइ	-3711
थम	-3712
▁खि	-3713
▁उद्देश्यले	-3714
▁चासो	-3715
▁महसु	-3716
▁४४	-3717
▁निवेदन	-3718
इने	-3719
▁बर्दिया	-3720
▁हिरा	-3721
▁मेयर	-3722
▁सरुवा	-3723
▁बजेसम्म	-3724
्लो	-3725
▁बेच	-3726
▁बैंकिङ	-3727
▁सङ्ख्या	-3728
',	-3729
शक्ति	-3730
▁अभिने	-3731
▁पठाउने	-3732
▁संगीत	-3733
▁गठबन्ध	-3734
▁आवा	-3735
▁वायु	-3736
र्चु	-3737
▁प्रतिक्रिया	-3738
सलाई	-3739
हुन्छ	-3740
▁युरो	-3741
▁लाभ	-3742
▁मैले	-3743
▁बनाइएको	-3744
▁अर	-3745
▁मर्ज	-3746
▁आह्वान	-3747
▁भरतपुर	-3748
▁सेवन	-3749
▁लगिएको	-3750
▁असु	-3751
▁सत्य	-3752
▁अनलाइन	-3753
▁समयदेखि	-3754
▁च्याम्प	-3755
▁दै	-3756
▁बच्चा	-3757
▁रसुवा	-3758
▁मामिला	-3759
▁लेखा	-3760
रहवा	-3761
▁हेलिकप्टर	-3762
टका	-3763
▁दोहो	-3764
▁व्यावसा	-3765
▁राजधानीमा	-3766
▁टी	-3767
न्दर	-3768
▁बाहेक	-3769
▁प्रमाणपत्र	-3770
▁प्रारम्भिक	-3771
ब्जा	-3772
▁दीप	-3773
हे	-3774
▁नम	-3775
स्तर	-3776
ोलखा	-3777
औष	-3778
▁ध्यानाकर्षण	-3779
▁आदि	-3780
▁वृ	-3781
▁धान	-3782
▁टेलिक	-3783
ालो	-3784
र्देश	-3785
▁दुबै	-3786
लाही	-3787
▁खाद्य	-3788
▁निवासी	-3789
▁आएर	-3790
▁काट	-3791
▁खेल्ने	-3792
▁विज्ञप्ति	-3793
ौली	-3794
लोकन	-3795
ेक्षा	-3796
▁४६	-3797
▁अश	-3798
नान्स	-3799
▁कसैले	-3800
▁नेपाललाई	-3801
▁सुरक्षाकर्मी	-3802
हत्या	-3803
▁तुलसी	-3804
स्टर	-3805
▁हिंसा	-3806
▁नागरिकलाई	-3807
सङ्	-3808
▁गाउँपालिकाका	-3809
ढु	-3810
▁मुस्	-3811
▁उपकरण	-3812
▁निस्क	-3813
▁प्रतियोगिताको	-3814
▁पशुपति	-3815
▁पहाडी	-3816
▁कार्यान्वय	-3817
न्तव्य	-3818
▁सबैलाई	-3819
▁आत	-3820
▁गलत	-3821
▁तार	-3822
▁जनामा	-3823
र्नु	-3824
▁मोड	-3825
▁पाल्	-3826
व्यक्ति	-3827
▁कारणले	-3828
बन्द	-3829
▁बार	-3830
▁जुम्	-3831
▁परम्प	-3832
▁अस्पतालका	-3833
्वि	-3834
ँग्रेस	-3835
▁नगर्न	-3836
ण्डै	-3837
▁सन्देश	-3838
नोद	-3839
▁रोप	-3840
ःशुल्क	-3841
किएका	-3842
▁युवती	-3843
▁वडाध्यक्ष	-3844
▁खुसी	-3845
बारी	-3846
हामी	-3847
▁जंग	-3848
▁पत्	-3849
▁हिमा	-3850
▁राख्दै	-3851
▁गाउँपालिकाको	-3852
▁चरणको	-3853
▁व्यक्तिलाई	-3854
▁विमानस्थलमा	-3855
लेन्स	-3856
▁चुनौती	-3857
▁५६	-3858
▁देखिएका	-3859
▁सौ	-3860
स्कृतिक	-3861
▁दिएपछि	-3862
गाई	-3863
▁नगरपालिकाले	-3864
फि	-3865
सोले	-3866
▁ज्या	-3867
▁पन्त	-3868
▁व्यक्तिगत	-3869
▁रूप	-3870
▁कुटपिट	-3871
▁सजि	-3872
▁हुनसक्ने	-3873
ंकन	-3874
▁सै	-3875
▁दाङ	-3876
▁पर्सा	-3877
▁लगाउन	-3878
▁क्वारेन्टाइनमा	-3879
मूल	-3880
रिङ	-3881
इरहेको	-3882
▁नदिने	-3883
▁ढा	-3884
▁हेटौंडा	-3885
▁पहु	-3886
▁प्ला	-3887
▁हिउँ	-3888
▁करण	-3889
▁एसिया	-3890
▁विद्यालयमा	-3891
पोख	-3892
▁जडान	-3893
▁नगरपालिकाको	-3894
चीमा	-3895
र्मिक	-3896
▁व्यापारी	-3897
▁बग	-3898
▁बाढ	-3899
▁आवास	-3900
▁विक्र	-3901
साई	-3902
ेशन	-3903
▁सिट	-3904
▁एश	-3905
गरमाथा	-3906
ध्यापक	-3907
▁ऊर्जा	-3908
▁थालिएको	-3909
▁विनियोजन	-3910
पे	-3911
▁वृद्ध	-3912
▁सन्तोष	-3913
डर	-3914
जरको	-3915
▁बस्नेतले	-3916
▁दिनुपर्ने	-3917
,‘	-3918
▁सिम	-3919
रिएका	-3920
▁सिद्धा	-3921
▁४७	-3922
▁स्वीकृत	-3923
तु	-3924
▁बहि	-3925
▁हालै	-3926
▁खारेज	-3927
त्सा	-3928
▁स्थल	-3929
▁परिवारका	-3930
▁सोध	-3931
▁झण्डै	-3932
▁एमालेका	-3933
▁संघर्ष	-3934
▁स्वीकृति	-3935
▁प्रशिक्षण	-3936
द्र्	-3937
▁सोच	-3938
▁अग्रता	-3939
िल्ली	-3940
▁पोस्ट	-3941
▁काँग्रेस	-3942
▁समाजवादी	-3943
▁भाव	-3944
▁मोह	-3945
म्बि	-3946
▁गएर	-3947
▁आइपुग	-3948
जस्ता	-3949
▁तोकेको	-3950
तै	-3951
मीको	-3952
न्यायाधीश	-3953
्रिक	-3954
▁राना	-3955
▁भ्रमणमा	-3956
मावली	-3957
▁हस्त	-3958
▁बस्नेत	-3959
न्टा	-3960
▁युवराज	-3961
▁५३	-3962
क्रममा	-3963
▁लुट	-3964
▁राजा	-3965
▁मर्मत	-3966
▁मिश्र	-3967
▁विद्युतीय	-3968
▁प्रधानमन्त्रीको	-3969
औषध	-3970
▁फोरम	-3971
▁संवैधानिक	-3972
▁कतार	-3973
▁२०७४	-3974
▁पश्चि	-3975
▁भैरहवा	-3976
▁नागरिकता	-3977
▁दोलखा	-3978
▁चालु	-3979
▁ग्यास	-3980
▁४९	-3981
▁सत्त	-3982
an	-3983
रव	-3984
▁केश	-3985
▁भोलि	-3986
प्रा	-3987
▁पृथ	-3988
▁पहुँच	-3989
▁स्कुल	-3990
▁नरेन्द्र	-3991
दम	-3992
जनी	-3993
जिल्ला	-3994
▁फ्रान्स	-3995
▁पछा	-3996
▁शंका	-3997
▁सदस्यीय	-3998
▁सर्लाही	-3999
▁कर्मचारीको	-4000
▁त्यति	-4001
▁बैंकि	-4002
▁पाण्डेले	-4003
▁तीव्र	-4004
रिता	-4005
हरुसँग	-4006
▁चिन्ता	-4007
▁कम्तीमा	-4008
▁खोलामा	-4009
प्रतिनिधि	-4010
ःख	-4011
▁बगा	-4012
▁साथी	-4013
in	-4014
▁मोहन	-4015
▁प्रसारण	-4016
▁बजेदेखि	-4017
वार्य	-4018
▁कर्मचारीलाई	-4019
▁श्रमिक	-4020
▁समर्थन	-4021
▁माछा	-4022
वर्ष	-4023
▁लाल	-4024
▁स्कु	-4025
▁सम्भव	-4026
धुनिक	-4027
▁दसै	-4028
▁एण्ड	-4029
▁प्रथम	-4030
▁सबैको	-4031
▁हावा	-4032
▁नु	-4033
राख	-4034
कुटा	-4035
▁दिला	-4036
▁प्रतिवेद	-4037
▁नभई	-4038
▁साझ	-4039
▁श्रीमा	-4040
▁अनिवार्य	-4041
▁धितोपत्र	-4042
▁खाद्या	-4043
▁लक्षित	-4044
▁उम्मेदवारी	-4045
▁निकुञ्ज	-4046
▁आलो	-4047
▁राणा	-4048
▁निक्षेप	-4049
▁भारतका	-4050
त्वमा	-4051
▁आएकी	-4052
▁चो	-4053
▁दलित	-4054
प्लव	-4055
▁पार्न	-4056
▁ढुंग	-4057
▁परम्परा	-4058
▁अलपत्र	-4059
▁गरिन्छ	-4060
▁रोकिएको	-4061
▁डाक्टर	-4062
▁त्यसका	-4063
▁निगमले	-4064
▁प्रदीप	-4065
▁लैजाने	-4066
▁अपेक्षा	-4067
▁समायोजन	-4068
▁कोही	-4069
▁५४	-4070
▁अपहरण	-4071
▁महाशाखाले	-4072
▁अंग	-4073
▁डिएसपी	-4074
▁उड	-4075
▁रोकथा	-4076
▁महानगर	-4077
▁कप्त	-4078
▁बढेर	-4079
उड	-4080
▁जति	-4081
▁संसदमा	-4082
▁अहिलेको	-4083
्म	-4084
▁रुपन्देही	-4085
▁इन्ड	-4086
▁एमालेले	-4087
▁व्यवहार	-4088
प्रद	-4089
लिङ	-4090
▁बैत	-4091
▁धार्मिक	-4092
▁सिमा	-4093
▁प्रदेशका	-4094
जीवन	-4095
▁समान	-4096
▁सर्वा	-4097
व्यापी	-4098
▁सगरमाथा	-4099
▁५८	-4100
▁यता	-4101
गि	-4102
▁धर्	-4103
▁फर्का	-4104
भल	-4105
▁आस	-4106
▁कार्यक्रमको	-4107
▁मलाई	-4108
▁बन्दै	-4109
▁फेसबु	-4110
▁दुःख	-4111
▁ताप्ले	-4112
▁उसले	-4113
▁सालमा	-4114
▁न्यूनतम	-4115
▁फल	-4116
▁इन	-4117
द्योग	-4118
▁एउटै	-4119
▁चल्ने	-4120
▁रुपैयाँमा	-4121
▁लिइएको	-4122
तालाई	-4123
▁गराइ	-4124
▁तहका	-4125
▁लाइन	-4126
र्का	-4127
▁रुकु	-4128
▁संचालन	-4129
▁कास्की	-4130
▁मैदानमा	-4131
अहिले	-4132
▁अर्जुन	-4133
▁गज	-4134
नाल्	-4135
▁मञ्च	-4136
”,	-4137
▁मल	-4138
▁आशंका	-4139
▁अस्ट्र	-4140
▁मान्छ	-4141
▁सुदूर	-4142
▁बिजु	-4143
▁मन्त्रालयमा	-4144
▁अनुभव	-4145
धनी	-4146
▁कर्	-4147
▁मावि	-4148
▁७७	-4149
ar	-4150
रस	-4151
निया	-4152
▁गाउँपालिकामा	-4153
▁आफैं	-4154
▁साझा	-4155
▁श्रील	-4156
▁सल्लाहकार	-4157
▁तेल	-4158
▁सानो	-4159
श्रम	-4160
▁कपि	-4161
▁निःशुल्क	-4162
काई	-4163
▁हासिल	-4164
▁मूल्यमा	-4165
जनक	-4166
राइ	-4167
▁अन्तरि	-4168
▁सेट	-4169
▁काठमाडौंको	-4170
▁युनियन	-4171
▁चोट	-4172
▁–	-4173
क्सि	-4174
टीका	-4175
▁जितेको	-4176
म्स	-4177
▁एन्ड	-4178
▁बयान	-4179
▁बलियो	-4180
&#39;	-4181
▁मिलेर	-4182
▁ह्या	-4183
नित	-4184
र्देशक	-4185
▁रक्त	-4186
▁असन्तु	-4187
▁मोरङ	-4188
▁स्वर्ण	-4189
कका	-4190
▁७२	-4191
▁कन्	-4192
▁कमी	-4193
▁गल्	-4194
▁जोश	-4195
▁सुशील	-4196
on	-4197
साब	-4198
▁चर्च	-4199
र्सिलो	-4200
▁भएकोले	-4201
en	-4202
गति	-4203
्याउन	-4204
▁छिटो	-4205
▁कुन	-4206
▁कुराका	-4207
ङक	-4208
ष्य	-4209
▁जस्तै	-4210
पहि	-4211
▁अख्तियारले	-4212
▁हेर्न	-4213
स्वास्थ्य	-4214
▁संख्यामा	-4215
स्पद	-4216
प्रहरी	-4217
रामर्श	-4218
▁सुत्	-4219
▁गण्डकी	-4220
▁विरोधमा	-4221
ियर	-4222
▁एल	-4223
पन्न	-4224
बाबु	-4225
वश्यक	-4226
७६	-4227
खोला	-4228
▁अभिभाव	-4229
▁मदि	-4230
▁धनकुटा	-4231
उनी	-4232
्चोक	-4233
▁संगठ	-4234
▁कोषमा	-4235
▁बन्	-4236
▁विकासका	-4237
▁उनीहरूको	-4238
▁टाउ	-4239
▁सन्दी	-4240
▁दिनसम्म	-4241
जन्य	-4242
▁पारे	-4243
▁परामर्श	-4244
स्थायी	-4245
▁स्मार्ट	-4246
ज्ञान	-4247
▁गभ	-4248
▁हाफ	-4249
सक्	-4250
▁जलविद्युत्	-4251
▁खत	-4252
कामना	-4253
दरबार	-4254
▁पुग्न	-4255
▁खाद्यान्न	-4256
▁८५	-4257
▁यथा	-4258
▁लिए	-4259
▁२०२०	-4260
▁अदालतको	-4261
▁निर्वाचनको	-4262
▁दलले	-4263
जय	-4264
र्द	-4265
ताले	-4266
▁कपडा	-4267
▁धादिङ	-4268
▁केन्द्रित	-4269
▁टाइ	-4270
▁मन्दि	-4271
▁हिरास	-4272
▁इतिहा	-4273
चारीले	-4274
▁भेटवार्ता	-4275
▁म्याग्	-4276
▁अस्पतालले	-4277
▁स्टक	-4278
लाइन्स	-4279
मगर	-4280
▁स्वीकार	-4281
▁ठेक	-4282
▁अग्	-4283
न्द्व	-4284
▁बाँके	-4285
▁शाक्य	-4286
▁बार्सिलो	-4287
▁औँ	-4288
▁गर्नेछन्	-4289
पीडित	-4290
▁आँखा	-4291
पाल्चोक	-4292
▁आन्दोलनमा	-4293
▁स्वय	-4294
▁नेकपाका	-4295
▁ठहर	-4296
▁इन्ध	-4297
▁सभामा	-4298
▁निष्कर्ष	-4299
▁लडा	-4300
सिए	-4301
दुई	-4302
र्थी	-4303
▁ट्रम्पले	-4304
गण	-4305
▁नेट	-4306
▁सहसचिव	-4307
यको	-4308
▁जर्म	-4309
▁देखाएको	-4310
जित	-4311
▁ठप्प	-4312
पक्षीय	-4313
▁आकर्ष	-4314
▁दुईजना	-4315
▁चाँ	-4316
जात	-4317
▁दौ	-4318
रेका	-4319
▁गराए	-4320
▁स्थापित	-4321
▁व्यक्तिले	-4322
७५	-4323
▁पाउन	-4324
▁गरिन्	-4325
नेन्द्र	-4326
▁चौधरीले	-4327
▁पाए	-4328
▁बिना	-4329
▁पाल्पा	-4330
▁ओलीको	-4331
नाम	-4332
पले	-4333
▁लम	-4334
▁महामारी	-4335
▁पर्या	-4336
▁ढुवानी	-4337
रौ	-4338
▁समूहका	-4339
ब्बा	-4340
▁हप्ता	-4341
खित	-4342
▁गौतमले	-4343
▁भइरहेका	-4344
डको	-4345
▁किसि	-4346
▁इटहरी	-4347
▁सञ्चालित	-4348
▁केन्द्रले	-4349
▁कालि	-4350
▁चीनले	-4351
▁समृद्धि	-4352
▁कर्मचारीले	-4353
▁भएन	-4354
▁त्रैमा	-4355
▁प्रकरण	-4356
एई	-4357
▁७३	-4358
▁खुद	-4359
काठमा	-4360
▁गभर्न	-4361
▁ताला	-4362
▁प्रि	-4363
▁कारागार	-4364
नलाई	-4365
▁ओभरमा	-4366
▁बिष	-4367
सम्ममा	-4368
यौं	-4369
्याल	-4370
▁तयारीमा	-4371
दिएको	-4372
▁विपक्षी	-4373
▁उनीहरूलाई	-4374
तेको	-4375
▁बैंकमा	-4376
▁काठ	-4377
▁विनोद	-4378
▁छोड	-4379
▁पुस्तक	-4380
ात	-4381
मुना	-4382
▁फैलिएको	-4383
▁६४	-4384
▁पत्ता	-4385
▁टिकट	-4386
नुपरेको	-4387
सनल	-4388
र्फत्	-4389
▁होला	-4390
▁आत्महत्या	-4391
▁घटनास्थलमै	-4392
ियत	-4393
▁भग	-4394
ीकृत	-4395
वस्था	-4396
निर्वाच	-4397
▁उपयुक्त	-4398
▁व्यावसायिक	-4399
▁सत्ता	-4400
लेट	-4401
▁५७	-4402
ौन	-4403
▁राजकुमार	-4404
ृति	-4405
जाति	-4406
▁ल्याएर	-4407
▁देखा	-4408
▁आर्	-4409
▁बर	-4410
कर्म	-4411
टारमा	-4412
▁समारोहमा	-4413
▁अन्	-4414
▁दरले	-4415
ँदैन	-4416
▁जोशी	-4417
संख्या	-4418
▁बिहानै	-4419
▁ढंग	-4420
एमाले	-4421
▁आचार्यले	-4422
▁स्वास्थ्यकर्मी	-4423
००	-4424
▁तन	-4425
▁६२	-4426
▁छलफलमा	-4427
▁हकप्रद	-4428
फोन	-4429
डीले	-4430
▁प्रिम	-4431
▁पञ्च	-4432
▁भिड	-4433
ृत्ति	-4434
▁बाँड	-4435
▁टुंगो	-4436
▁महिलालाई	-4437
भार	-4438
क्सन	-4439
बो	-4440
मेल	-4441
▁दिँदा	-4442
▁७१	-4443
ब्र	-4444
▁आपत्ति	-4445
मणि	-4446
▁विज्ञा	-4447
▁गरियो	-4448
▁फर्किएका	-4449
।'	-4450
▁तिम	-4451
▁निम	-4452
▁मतदाता	-4453
▁वर्षसम्म	-4454
ुक	-4455
▁बुझाएको	-4456
it	-4457
▁५९	-4458
छिन्	-4459
▁आफु	-4460
धारित	-4461
वृद्धि	-4462
▁जनशक्ति	-4463
▁अप्र	-4464
▁प्रतिनि	-4465
▁सवारीसा	-4466
▁घिमिरेले	-4467
सीको	-4468
▁भवि	-4469
▁तनाव	-4470
ग्रस्त	-4471
▁वर्षे	-4472
नन्द	-4473
▁बेल	-4474
▁संविधानको	-4475
मण्ड	-4476
▁पक्षले	-4477
▁समूहको	-4478
▁माथिल्लो	-4479
्स	-4480
▁ओम	-4481
▁गराइएको	-4482
▁ज्ञापन	-4483
▁निको	-4484
▁जाजरको	-4485
इँ	-4486
▁द्वन्द्व	-4487
्नुपर्ने	-4488
▁रुपैयाँको	-4489
▁एनस	-4490
▁सडकको	-4491
▁सिन्धुपाल्चोक	-4492
at	-4493
ँदे	-4494
▁काभ्रे	-4495
▁उनकी	-4496
▁ठेकेदार	-4497
र्दै	-4498
▁अफग	-4499
▁अवि	-4500
▁साउदी	-4501
▁सँगै	-4502
▁श्रेष्ठको	-4503
▁क्रा	-4504
▁पानीको	-4505
▁मू	-4506
▁दफा	-4507
▁अभियुक्त	-4508
▁नगरपालिकामा	-4509
महा	-4510
▁७६	-4511
▁कक्ष	-4512
थी	-4513
टाएको	-4514
▁अष्ट्र	-4515
▁उपाध्या	-4516
ेकाले	-4517
▁टाउको	-4518
ारमाध्य	-4519
▁प्रालि	-4520
▁निरन्तरता	-4521
▁कार्यसमिति	-4522
भेट	-4523
ोलु	-4524
▁आउट	-4525
▁बचत	-4526
▁विद्यादेवी	-4527
▁अपा	-4528
▁समयमै	-4529
▁महानिर्देशक	-4530
▁दिवस	-4531
▁बिमा	-4532
▁कहिले	-4533
▁भेटमा	-4534
▁कप्तान	-4535
अब	-4536
नेछ	-4537
सनमा	-4538
▁बनाए	-4539
▁सुवे	-4540
▁बहादुर	-4541
▁लुम्बि	-4542
▁दिनु	-4543
संस्था	-4544
▁नसक्दा	-4545
▁ब्	-4546
ानमा	-4547
▁सफा	-4548
अध्यक्ष	-4549
▁पहिरोले	-4550
▁पुलि	-4551
ेरा	-4552
र्को	-4553
▁सरकारसँग	-4554
ल्का	-4555
▁परिच	-4556
▁सेमि	-4557
▁जनप्रतिनिधि	-4558
▁अने	-4559
यमित	-4560
▁जसले	-4561
▁गर्दछ	-4562
▁संवाद	-4563
ेछा	-4564
▁शहर	-4565
विक्रम	-4566
हाल	-4567
▁माध्यमबाट	-4568
▁त्रिवि	-4569
▁गोपाल	-4570
▁अस्थायी	-4571
▁खेती	-4572
▁गुल्	-4573
▁ढुंगा	-4574
कलमा	-4575
▁उपयोग	-4576
▁खोजेको	-4577
▁च्याम्पियन	-4578
शासन	-4579
▁आशा	-4580
▁प्रगति	-4581
▁सुदूरपश्चिम	-4582
▁अञ्चल	-4583
▁पूँजी	-4584
▁बैतडी	-4585
▁विस्फोट	-4586
▁परिवारले	-4587
ौल	-4588
▁व्यवस्थित	-4589
यू	-4590
तिहासिक	-4591
▁अभिनय	-4592
▁राजश्व	-4593
झदारी	-4594
हक	-4595
वहार	-4596
▁संस्थागत	-4597
▁जसमा	-4598
▁सञ्चारमाध्य	-4599
▁राजपा	-4600
▁संस्थाका	-4601
▁अस्पतालको	-4602
▁चुना	-4603
▁आइसोले	-4604
▁प्रवद्र्	-4605
▁परियार	-4606
हामीले	-4607
▁विहान	-4608
▁गरेकाले	-4609
▁निकालेको	-4610
हिद	-4611
▁उपहार	-4612
▁जनसंख्या	-4613
३०	-4614
▁पछाडि	-4615
▁संघको	-4616
११	-4617
ल्स	-4618
▁रिहा	-4619
▁बोकेर	-4620
▁सत	-4621
▁एकल	-4622
▁फाउ	-4623
▁अगुवा	-4624
▁गन्तव्य	-4625
▁निश्चित	-4626
▁संस्थान	-4627
▁सक्नेछन्	-4628
▁परिस्थिति	-4629
शाली	-4630
▁गिरी	-4631
▁अख	-4632
माया	-4633
स्ने	-4634
▁राखी	-4635
▁पठाउन	-4636
▁थापाको	-4637
लीका	-4638
▁भीड	-4639
▁मेट	-4640
▁बैंकिङ्ग	-4641
▁विद्यार्थीलाई	-4642
पार्क	-4643
म्बुलेन्स	-4644
▁दसैं	-4645
▁समग्र	-4646
▁सांस्कृतिक	-4647
ियाँ	-4648
▁उपचारमा	-4649
▁महासंघका	-4650
लेले	-4651
▁संकट	-4652
▁कन्ट	-4653
▁१००	-4654
▁प्रधानन्यायाधीश	-4655
▁कृष	-4656
▁झडप	-4657
▁राजनीति	-4658
▁विश्वकप	-4659
▁विषयलाई	-4660
▁ठु	-4661
▁आधारित	-4662
▁अमेरिकाको	-4663
▁औद्योग	-4664
▁पत्रका	-4665
▁शुभकामना	-4666
क्क	-4667
▁रामचन्द्र	-4668
▁नोट	-4669
▁गायक	-4670
▁मुना	-4671
▁युद्ध	-4672
सन्त	-4673
सीमा	-4674
▁समी	-4675
▁सुरेन्द्र	-4676
▁क्षेत्रबाट	-4677
▁भत्ता	-4678
▁प्रसाद	-4679
▁सहयोगी	-4680
ज्	-4681
▁दलहरु	-4682
▁ज्ञान	-4683
▁भविष्य	-4684
एच	-4685
चारु	-4686
मुक्त	-4687
▁घरबाट	-4688
▁लकडाउ	-4689
▁पर्नेमा	-4690
▁चाँड	-4691
▁रुपियाँ	-4692
▁जरु	-4693
▁चर्चित	-4694
▁उत्पन्न	-4695
▁६९	-4696
▁७४	-4697
▁आवको	-4698
▁केसीको	-4699
▁घट्	-4700
▁बोहरा	-4701
▁घरको	-4702
▁पत्नी	-4703
ठ्य	-4704
लवस्तु	-4705
धै	-4706
▁विकासमा	-4707
▁पर्यटकीय	-4708
▁सन	-4709
ारुढ	-4710
▁तस्क	-4711
▁आरोहण	-4712
▁बजेतिर	-4713
▁ची	-4714
जिङ	-4715
▁६६	-4716
▁बोर्डले	-4717
▁पहिलोपटक	-4718
टिल	-4719
▁लिइ	-4720
▁घन्टा	-4721
▁आयुक्त	-4722
▁खटिएको	-4723
▁अत्यावश्यक	-4724
▁सघ	-4725
▁सम्पाद	-4726
▁नेताहरु	-4727
▁६३	-4728
▁खुकु	-4729
▁ग्रहण	-4730
म्की	-4731
▁मदिरा	-4732
▁आलोचना	-4733
▁ज्ञानेन्द्र	-4734
विद्	-4735
▁चर	-4736
थ्यो	-4737
▁सेमिफाइन	-4738
▁प्रक्रियामा	-4739
▁चलि	-4740
▁रिट	-4741
▁उचित	-4742
▁उत्सा	-4743
▁काउन्	-4744
▁तनहुँ	-4745
न्डै	-4746
▁ग्लो	-4747
▁रनको	-4748
▁मुल्य	-4749
▁खण्डमा	-4750
▁क्रान्ति	-4751
पर्	-4752
▁विधान	-4753
▁विभागको	-4754
खल	-4755
तिका	-4756
▁हाउ	-4757
शालामा	-4758
▁यसबारे	-4759
▁प्रकाशन	-4760
▁गरिसकेका	-4761
▁महासंघले	-4762
ूहिक	-4763
▁देवको	-4764
▁रामेछा	-4765
▁दिनुभयो	-4766
▁कम्युनिस्ट	-4767
▁स्थानीयवासी	-4768
▁भेटि	-4769
थु	-4770
किन	-4771
▁लाइफ	-4772
धिकारिक	-4773
▁प्राथमिकता	-4774
▁श्याम	-4775
ङ्गल	-4776
▁नेटव	-4777
▁चिकित्सा	-4778
▁नागरिकको	-4779
▁संयोजकत्वमा	-4780
राति	-4781
▁खुवा	-4782
▁आगजनी	-4783
▁एम्बुलेन्स	-4784
▁६१	-4785
▁कथा	-4786
▁नदिन	-4787
▁भत्का	-4788
▁दिनअघि	-4789
मीण	-4790
भरि	-4791
ेयर	-4792
▁अरू	-4793
▁परिचय	-4794
▁जस	-4795
▁६८	-4796
▁निगर	-4797
▁शब्द	-4798
ालगायत	-4799
▁रामबहादुर	-4800
▁कदम	-4801
▁हिजो	-4802
▁निर्धारित	-4803
खन	-4804
जत	-4805
च्छा	-4806
▁कूल	-4807
▁चक्र	-4808
▁जवान	-4809
सल	-4810
ंदै	-4811
वाली	-4812
▁उड्	-4813
▁बाँस्को	-4814
▁सामूहिक	-4815
▁आधिकारिक	-4816
▁सरकारमा	-4817
न्छु	-4818
▁जाग	-4819
▁हार	-4820
▁जरुरी	-4821
▁निगरानी	-4822
तिकै	-4823
्याएको	-4824
td	-4825
▁परिणा	-4826
▁हिसाब	-4827
▁एसियाली	-4828
▁एसो	-4829
▁हङक	-4830
▁रियल	-4831
▁सद्	-4832
▁भागमा	-4833
▁चुनावी	-4834
▁प्याके	-4835
▁एयरलाइन्स	-4836
▁नामक	-4837
▁माया	-4838
▁समझदारी	-4839
▁अस्ट्रेलिया	-4840
चीन	-4841
▁भन्छन्	-4842
वती	-4843
यरमा	-4844
▁झन्	-4845
▁बाटोमा	-4846
▁अधिवेशन	-4847
▁सन्दर्भ	-4848
▁औद्योगिक	-4849
▁चित्र	-4850
▁एकीकृत	-4851
▁सिमेन्ट	-4852
▁इन्टरनेट	-4853
▁पेट्रोलियम	-4854
▁सुनसरी	-4855
▁ऐतिहासिक	-4856
▁रेड	-4857
▁यहाँका	-4858
▁रेग्मी	-4859
ढुंगा	-4860
▁सकेन	-4861
▁दिनेश	-4862
▁लिखित	-4863
▁ट्याक्टर	-4864
▁सेत	-4865
▁घाटा	-4866
▁अवलोकन	-4867
▁दुर्गा	-4868
▁पाइप	-4869
▁सिंहदरबार	-4870
▁कुँ	-4871
▁लगाइ	-4872
▁अप्	-4873
▁चिसो	-4874
▁स्वाब	-4875
▁खातामा	-4876
▁सुरुवा	-4877
▁कार्यान्वयनमा	-4878
सम्	-4879
▁क्रि	-4880
▁निस्	-4881
▁प्रयोज	-4882
पश्च	-4883
▁क्षेत्रलाई	-4884
रूप	-4885
विध	-4886
खाना	-4887
▁आइरहेको	-4888
▁प्रोत्सा	-4889
▁बहस	-4890
▁संशोध	-4891
▁सापकोटा	-4892
▁सत्तारुढ	-4893
▁वीरेन्द्र	-4894
ूट	-4895
▁नेत्र	-4896
▁फाइदा	-4897
▁ग्रामीण	-4898
▁हामीलाई	-4899
▁व्यवसायीले	-4900
▁माइक्रो	-4901
▁प्रतिपक्षी	-4902
▁रुकुम	-4903
▁मूल्या	-4904
▁सुन्दर	-4905
▁बौ	-4906
▁दिशा	-4907
▁तरिका	-4908
▁लाग्छ	-4909
▁बताएकी	-4910
▁झन्डै	-4911
जिन	-4912
▁२०५	-4913
▁निम्ति	-4914
▁मुलुकका	-4915
▁पारेका	-4916
▁बोल	-4917
▁इरान	-4918
▁शिक्ष	-4919
▁प्रशिक्षक	-4920
▁भेग	-4921
लगत्तै	-4922
▁लुका	-4923
▁तामाङले	-4924
▁कोरोनाको	-4925
▁अभिव्यक्ति	-4926
गन	-4927
ेसी	-4928
वद्ध	-4929
▁ताप	-4930
▁क्रमश	-4931
▁राजेश	-4932
▁श्रीलंका	-4933
▁सञ्चारकर्मी	-4934
१२	-4935
हीले	-4936
▁पर्ख	-4937
▁ग्राहकले	-4938
▁धारा	-4939
▁भन्नुभयो	-4940
▁साध	-4941
▁पैदल	-4942
▁सर्वाधिक	-4943
▁बलमा	-4944
▁जनाउँदै	-4945
▁वार	-4946
▁खाली	-4947
▁डिस्	-4948
▁मुक्त	-4949
▁सुनुवाइ	-4950
▁७८	-4951
▁लिई	-4952
▁इजलासले	-4953
भक्त	-4954
स्यौ	-4955
▁सेक	-4956
▁पाइने	-4957
▁विद्यार्थीले	-4958
▁रोपनी	-4959
▁हटाउन	-4960
▁अर्थात्	-4961
▁काठमाडौंः	-4962
टले	-4963
ेसँगै	-4964
▁आतंक	-4965
▁त्यस्ता	-4966
▁चिया	-4967
▁काठमाडा	-4968
▁कुराकानी	-4969
▁अमेरिकामा	-4970
जले	-4971
▁बाढीले	-4972
▁६७	-4973
केट	-4974
टेड	-4975
ड्रि	-4976
प्रकाश	-4977
▁कानून	-4978
▁मेसिन	-4979
▁मुक्ति	-4980
षाध्यक्ष	-4981
▁सङ्क्रमित	-4982
थर	-4983
▁८२	-4984
▁भुट	-4985
▁सिका	-4986
उप	-4987
पूर्वक	-4988
▁युरोप	-4989
▁चलाउने	-4990
आफ्न	-4991
▁पर्याप्त	-4992
▁फाइनान्स	-4993
▁हिरासतमा	-4994
अप	-4995
तक	-4996
द्वय	-4997
▁शाहीले	-4998
▁अनियमित	-4999
्वाइ	-5000
कस्	-5001
▁विप्लव	-5002
▁सरस	-5003
सेन	-5004
ट्टी	-5005
▁पुनले	-5006
▁सरोकारवाला	-5007
१५	-5008
▁हुँदैछ	-5009
▁यौन	-5010
▁मासु	-5011
▁महारा	-5012
▁शाहले	-5013
▁परेपछि	-5014
▁खटिएका	-5015
किलो	-5016
▁मोदी	-5017
▁मासिक	-5018
▁अन्तरिम	-5019
▁इन्द्र	-5020
ानिस्तान	-5021
▁जनतालाई	-5022
▁वृत्त	-5023
▁सुत्के	-5024
स्टि	-5025
▁लागत	-5026
▁मान्छे	-5027
▁दृष्टि	-5028
▁माओवादीले	-5029
▁सब	-5030
▁ग्या	-5031
▁जोखिममा	-5032
▁बाँध	-5033
▁ढंगले	-5034
संविधान	-5035
▁फाइनलमा	-5036
धुरा	-5037
▁आसपा	-5038
मात्रै	-5039
▁निमित्त	-5040
▁महिनादेखि	-5041
▁शंकर	-5042
▁महाधिवेशन	-5043
फे	-5044
डामा	-5045
▁एपी	-5046
▁गएपछि	-5047
▁तोडफो	-5048
▁लुम्बिनी	-5049
▁जोडि	-5050
▁प्रान्त	-5051
▁८६	-5052
▁डिजि	-5053
▁फिल्ममा	-5054
▁अधिकारीको	-5055
▁संसार	-5056
▁अर्यालले	-5057
▁केन्द्रको	-5058
▁जला	-5059
जस्ती	-5060
▁अनिल	-5061
▁मानस	-5062
मन्त्रालय	-5063
▁दिनभित्र	-5064
▁उपत्यकामा	-5065
▁जलेर	-5066
▁सुवेदी	-5067
▁गुणस्तर	-5068
▁अनशन	-5069
वेदीले	-5070
ज्ञानिक	-5071
▁कहाँ	-5072
▁छैन्	-5073
▁पर्न	-5074
विप	-5075
▁क्वा	-5076
▁अध्यक्षतामा	-5077
▁रेमिट	-5078
▁लामाले	-5079
▁सहमतिको	-5080
▁असह	-5081
▁भन्न	-5082
▁हेर्दा	-5083
डका	-5084
म्मद	-5085
▁जिप	-5086
▁बेहो	-5087
▁परिसू	-5088
▁बढुवा	-5089
न्सर	-5090
▁अनुसन्धानका	-5091
सेव	-5092
▁करी	-5093
▁खतरा	-5094
▁भ्या	-5095
▁मस्यौ	-5096
▁९५	-5097
केको	-5098
समक्ष	-5099
स्कृत	-5100
▁रत्न	-5101
सुकै	-5102
▁पश्चिमी	-5103
▁ओभर	-5104
▁होम	-5105
▁जोड्ने	-5106
राब	-5107
▁सम्मा	-5108
▁गभर्नर	-5109
▁९९	-5110
▁चलाउन	-5111
▁विज्ञापन	-5112
▁विश्वकर्	-5113
▁ब्रि	-5114
सम्मका	-5115
▁जनताले	-5116
▁लगत्तै	-5117
▁लिमिटेडले	-5118
▁जीप	-5119
▁कार्यविधि	-5120
▁घुम्	-5121
▁मुनाफा	-5122
▁२०७२	-5123
▁जोशीले	-5124
▁महिलाले	-5125
▁कम्युनिष्ट	-5126
▁जनजाति	-5127
▁पाएपछि	-5128
▁महर्जन	-5129
भूत	-5130
रिक	-5131
क्की	-5132
▁आयल	-5133
नेकपा	-5134
▁मान्यता	-5135
▁इन्स्योरेन्स	-5136
▁भुस	-5137
▁नभएका	-5138
▁कांग्रेसको	-5139
▁रवि	-5140
▁सङ्घीय	-5141
▁राष्ट्रसंघ	-5142
▁८८	-5143
धीन	-5144
▁भर	-5145
कक्ष	-5146
▁मुम्ब	-5147
▁लैजान	-5148
▁बस्ती	-5149
▁रोकथाम	-5150
▁बसो	-5151
▁स्टार	-5152
▁थुनामा	-5153
▁वटै	-5154
ह्न	-5155
▁दुईवटा	-5156
अभि	-5157
▁हुनुपर्छ	-5158
▁बेलुका	-5159
▁सुचारु	-5160
▁दरबार	-5161
▁हुनेछन्	-5162
िमा	-5163
▁सुनाए	-5164
▁हेर्ने	-5165
▁अष्ट्रेलिया	-5166
▁प्रतिनिध	-5167
डाइ	-5168
वालीले	-5169
▁चट्या	-5170
▁पारेर	-5171
▁चलाएको	-5172
▁निष्कास	-5173
▁क्यान	-5174
▁इन्जिनियर	-5175
▁फैलि	-5176
▁पदक	-5177
▁अस्वी	-5178
▁प्रको	-5179
▁मस्यौदा	-5180
सिना	-5181
▁मदन	-5182
सभामा	-5183
▁टाढा	-5184
अधिकार	-5185
▁राय	-5186
▁बुँदे	-5187
▁विस्तृत	-5188
▁कम्पनीमा	-5189
प्ने	-5190
▁ल्याएका	-5191
यती	-5192
▁दशक	-5193
रिक्त	-5194
ीमाथि	-5195
▁विदेशमा	-5196
▁कार्यकर्ताले	-5197
▁फलफ	-5198
▁भाउ	-5199
▁उपभोग	-5200
▁देखिने	-5201
ोमा	-5202
▁भिसा	-5203
▁घर्ती	-5204
▁चामल	-5205
▁पहिला	-5206
▁यसबाट	-5207
▁नभएकाले	-5208
लिम	-5209
▁बदली	-5210
▁संक्रमितको	-5211
त्त्व	-5212
▁खरेल	-5213
▁यद्य	-5214
▁थारु	-5215
▁समीक्षा	-5216
▁माध्यमिक	-5217
▁टेलिभिजन	-5218
▁सुवेदीले	-5219
थे	-5220
▁प्रजातन्त्र	-5221
▁जाह	-5222
▁विक्री	-5223
▁नेपालगञ्ज	-5224
▁दे	-5225
▁नक्सा	-5226
सरकारले	-5227
▁भेटघाट	-5228
▁ज्ञवाली	-5229
▁सडकखण्ड	-5230
▁८४	-5231
क्कि	-5232
रोजग	-5233
▁सकेका	-5234
▁सङ्कलन	-5235
▁कार्यालयबाट	-5236
▁योग्य	-5237
▁होटलमा	-5238
मुखी	-5239
▁तर्क	-5240
▁ज्ञवालीले	-5241
▁आय	-5242
वियु	-5243
▁हिमपात	-5244
▁नेपालीलाई	-5245
मक	-5246
ाउँछ	-5247
▁ठगी	-5248
ञ्चार	-5249
▁केशव	-5250
▁दिएकी	-5251
▁नियमावली	-5252
▁कार्यक्रमका	-5253
▁क्षतिपूर्ति	-5254
दीले	-5255
▁एन्	-5256
▁तीनजना	-5257
▁परीक्षणका	-5258
▁सवारीसाधन	-5259
▁एनआर	-5260
▁हाइड	-5261
खुवा	-5262
ालका	-5263
ोरै	-5264
▁तारा	-5265
▁फाइनल	-5266
▁बौद्ध	-5267
iv	-5268
िकरण	-5269
▁काँ	-5270
▁देखिएपछि	-5271
▁मन्त्रिपरिषद्को	-5272
▁रगत	-5273
▁फर्कने	-5274
▁अमेरिकाले	-5275
id	-5276
वित	-5277
▁बिल	-5278
▁भारी	-5279
▁नपाउने	-5280
▁बाहिरि	-5281
▁दूतावासले	-5282
र्तामो	-5283
▁कपिलवस्तु	-5284
तः	-5285
प्ती	-5286
▁माझ	-5287
▁मिस	-5288
▁उपसभा	-5289
▁गिरीले	-5290
▁स्रोतका	-5291
▁कार्यकाल	-5292
▁राव	-5293
स्थलको	-5294
▁दैलेख	-5295
▁डोल्पा	-5296
▁कृष्णबहादुर	-5297
गल	-5298
▁उड्ड	-5299
▁साथमा	-5300
टाएर	-5301
▁केजी	-5302
▁बीचमा	-5303
▁पत्रिका	-5304
▁उपराष्ट्रपति	-5305
ंख	-5306
▁वु	-5307
म्बू	-5308
▁मनोज	-5309
▁संस्थापक	-5310
भरी	-5311
▁हल	-5312
▁आर्जन	-5313
▁७९	-5314
▁ओखल	-5315
▁रौतहट	-5316
▁दूध	-5317
▁पुराना	-5318
मलाई	-5319
▁रेक	-5320
किएको	-5321
▁जानु	-5322
▁सुरुङ	-5323
▁हुन्छन्	-5324
▁घरमै	-5325
▁झापाको	-5326
▁कार्यमा	-5327
▁राज्यको	-5328
▁प्रयोगकर्ता	-5329
काे	-5330
▁सहर	-5331
▁अफगानिस्तान	-5332
लागि	-5333
▁छाप	-5334
▁लोकतन्त्र	-5335
▁उच्चस्तरीय	-5336
▁प्रतिनिधित्व	-5337
र्की	-5338
सोम	-5339
▁तीनै	-5340
▁ग्लोबल	-5341
काठमाडौं	-5342
▁धरौ	-5343
▁आक्रो	-5344
▁रुख	-5345
▁करिव	-5346
▁बनाई	-5347
▁भएमा	-5348
▁दिइने	-5349
▁हजारभन्दा	-5350
ङ्जा	-5351
लाले	-5352
सङ्घ	-5353
▁सहुल	-5354
▁फोहोर	-5355
फ्ट	-5356
▁वसन्त	-5357
▁कोषाध्यक्ष	-5358
▁मन्त्रिपरिषद	-5359
▁८१	-5360
▁रजि	-5361
▁सङ्ग	-5362
▁गाय	-5363
▁बालक	-5364
▁भइसकेका	-5365
▁अतिरिक्त	-5366
म्वा	-5367
▁छापा	-5368
एमई	-5369
▁टेक	-5370
▁बेइ	-5371
▁ट्वी	-5372
▁पालना	-5373
▁सेवाको	-5374
▁घटनाबारे	-5375
▁प्रणालीमा	-5376
मध	-5377
▁पाटन	-5378
▁महेश	-5379
▁खत्र	-5380
▁सद्भाव	-5381
▁मकवानपुर	-5382
जिअ	-5383
▁बसि	-5384
डाँडा	-5385
▁खेल्न	-5386
▁कीर्ति	-5387
▁अपरान्ह	-5388
▁प्रचण्डले	-5389
सिङ	-5390
▁ज्व	-5391
▁हल्ला	-5392
▁सूचीमा	-5393
▁राखे	-5394
कुलपति	-5395
▁थुप्र	-5396
▁मुद्रा	-5397
▁अत्यन्त	-5398
▁गुमाएका	-5399
▁महाशाखाका	-5400
▁समूहमा	-5401
▁हात्ती	-5402
▁रेग्मीले	-5403
र्घ	-5404
▁डाइ	-5405
▁काली	-5406
▁शिशु	-5407
▁निलम्ब	-5408
▁हस्तक्षेप	-5409
तिको	-5410
▁यसैबीच	-5411
▁स्वरुप	-5412
▁छेउ	-5413
▁राजु	-5414
▁चीनमा	-5415
▁बन्दा	-5416
▁भोजपुर	-5417
विरुद्धको	-5418
▁जात	-5419
▁भोट	-5420
▁नेवि	-5421
▁ब्याजदर	-5422
वीर	-5423
▁सिल	-5424
श्वास	-5425
▁केहि	-5426
▁सपना	-5427
ालु	-5428
▁दुख	-5429
▁कमिटी	-5430
विहीन	-5431
▁ढोका	-5432
रिक्षक	-5433
▁भट्टले	-5434
▁संसदको	-5435
▁थोरै	-5436
▁संकेत	-5437
▁निकायको	-5438
▁हाइड्रो	-5439
वरी	-5440
▁उपाय	-5441
▁निकास	-5442
▁सिंगा	-5443
▁1	-5444
पीओ	-5445
▁सिटी	-5446
▁सुवास	-5447
▁पत्रमा	-5448
▁लकडाउनको	-5449
▁एफ	-5450
▁टन	-5451
▁कस्तो	-5452
रात	-5453
▁अरुण	-5454
▁तथ्य	-5455
▁अंकले	-5456
▁कामको	-5457
▁परिवारको	-5458
यसै	-5459
मीका	-5460
▁मल्ल	-5461
▁लिटर	-5462
▁वैद्य	-5463
▁अन्तराष्ट्रिय	-5464
्यवहार	-5465
▁क्याम्पस	-5466
िट	-5467
▁शू	-5468
▁शेख	-5469
▁आबद्ध	-5470
▁ईश्वर	-5471
▁मास्क	-5472
▁आयो	-5473
▁सल्यान	-5474
्दो	-5475
्मण	-5476
▁शौ	-5477
▁८७	-5478
▁कविता	-5479
▁उड्डयन	-5480
▁मुस्ता	-5481
▁मेगावाट	-5482
▁परे	-5483
जस्तो	-5484
▁सहिद	-5485
रियाली	-5486
▁बजेटमा	-5487
▁विधा	-5488
▁किशोरी	-5489
▁सप्तरी	-5490
▁अत्यधिक	-5491
▁विश्वका	-5492
▁नमा	-5493
▁किरण	-5494
▁भूभाग	-5495
▁ल्याइ	-5496
विरोध	-5497
▁असफल	-5498
▁वास्त	-5499
▁सफलता	-5500
कर्मीले	-5501
▁तोडफोड	-5502
▁हिमाली	-5503
▁कम्पनीलाई	-5504
▁लन्ड	-5505
▁२०७३	-5506
▁नभएपछि	-5507
▁नसकिने	-5508
▁सामाग्री	-5509
▁करीब	-5510
▁मुम्बई	-5511
es	-5512
▁सहायता	-5513
शल	-5514
▁कुव	-5515
▁बालुवाटारमा	-5516
वधि	-5517
▁गंगा	-5518
▁सेवामा	-5519
▁९२	-5520
▁मालपो	-5521
▁तापक्रम	-5522
▁रहेर	-5523
▁मिल्ने	-5524
▁जोडिएको	-5525
▁सहमतिमा	-5526
▁अशोक	-5527
▁लाग्न	-5528
▁निर्वाह	-5529
▁पोखरामा	-5530
▁प्रशासक	-5531
▁हौं	-5532
▁शल्य	-5533
चो	-5534
▁अनुमो	-5535
▁आधुनिक	-5536
▁प्रतिवेदनमा	-5537
▁अधिकतम	-5538
▁विश्ले	-5539
▁प्रकृति	-5540
नुपा	-5541
▁तिहार	-5542
▁नमुना	-5543
▁सबैले	-5544
योग्य	-5545
▁दोषी	-5546
कूल	-5547
▁पाउ	-5548
▁बराबर	-5549
▁अभियानमा	-5550
▁अरब	-5551
▁फूल	-5552
▁शिखर	-5553
▁२०१९	-5554
▁ग्राम	-5555
▁घटनास्थलमा	-5556
न्यास	-5557
▁रानी	-5558
▁रोकि	-5559
▁याएको	-5560
▁सामना	-5561
▁प्रहरीमा	-5562
▁रमा	-5563
▁वाम	-5564
▁सतर्क	-5565
ेन्ज	-5566
▁गरिए	-5567
▁मङ्गल	-5568
▁अवतरण	-5569
▁अडान	-5570
▁खोटा	-5571
▁चलेको	-5572
▁कोठामा	-5573
▁लिम्बू	-5574
▁विद्यार्थीको	-5575
शनल	-5576
▁कटौ	-5577
▁रेख	-5578
▁समुह	-5579
▁गाँजा	-5580
▁विविध	-5581
शेष	-5582
▁महरा	-5583
▁राईको	-5584
▁छुट्टै	-5585
▁प्रजिअ	-5586
▁मानवीय	-5587
▁सेनाका	-5588
▁दार्चु	-5589
▁सापकोटाले	-5590
▁प्राधिकरणका	-5591
▁सिक	-5592
▁मधेश	-5593
▁स्मृति	-5594
डाको	-5595
▁विगतमा	-5596
▁राजधानीको	-5597
▁सम्पर्कमा	-5598
▁कूट	-5599
ारोपण	-5600
▁बालिकालाई	-5601
घन	-5602
▁डिजिटल	-5603
▁९८	-5604
▁उदा	-5605
▁नेपालबाट	-5606
▁मोटरसाइकलमा	-5607
▁शो	-5608
▁छात्र	-5609
नेपाली	-5610
▁सहितको	-5611
▁ट्रान्स	-5612
▁थाइ	-5613
ण्डित	-5614
▁म्यु	-5615
नुपातिक	-5616
▁सुब्बा	-5617
टरमा	-5618
▁गेट	-5619
रूपमा	-5620
ेदारी	-5621
▁माटो	-5622
▁विना	-5623
▁बढाइएको	-5624
▁९६	-5625
▁बिज	-5626
▁कसुर	-5627
▁त्रा	-5628
▁दाजु	-5629
▁पाठक	-5630
पोर	-5631
र्जी	-5632
नेश्वर	-5633
▁लेखेका	-5634
▁गराउँदै	-5635
▁प्राकृतिक	-5636
▁धन्य	-5637
▁पोलि	-5638
बई	-5639
टिभ	-5640
▁बेल्	-5641
नाइटेड	-5642
प्रदेश	-5643
▁खुल्न	-5644
▁व्यस्त	-5645
vt	-5646
▁गे	-5647
न्डर	-5648
▁देवी	-5649
▁२०१८	-5650
हरुबाट	-5651
▁दुर्ग	-5652
▁परिणाम	-5653
▁यादवको	-5654
▁सुत्केरी	-5655
▁नलि	-5656
▁दोहोरो	-5657
▁नेताले	-5658
▁मेलामा	-5659
▁रेकर्ड	-5660
▁मौका	-5661
▁छिट्टै	-5662
▁समृद्ध	-5663
जनको	-5664
ेवार	-5665
▁खत्री	-5666
▁खुट्टा	-5667
▁सचिवालयले	-5668
पाइ	-5669
ुरे	-5670
सम्प	-5671
▁आवत	-5672
▁अध्ययनरत	-5673
▁कञ्चनपुर	-5674
▁गर्द	-5675
श्रमिक	-5676
▁उपेन्द्र	-5677
▁अध्यक्षमा	-5678
▁नियन्त्रणका	-5679
षे	-5680
दायक	-5681
▁किशोर	-5682
स्थापित	-5683
▁तालिका	-5684
▁पुनरा	-5685
▁वर्षपछि	-5686
▁संस्करण	-5687
▁परीक्षामा	-5688
लाय	-5689
सहितका	-5690
▁भार	-5691
▁परिसूचक	-5692
▁महिनाअघि	-5693
▁खुल्ला	-5694
▁परिसरमा	-5695
चाइ	-5696
ण्ट	-5697
ाराम	-5698
ेन्ड	-5699
▁इन्धन	-5700
▁कल्या	-5701
▁दिइन्	-5702
▁नवराज	-5703
▁कमाएको	-5704
न्ती	-5705
▁कागजात	-5706
▁विदेशबाट	-5707
राही	-5708
▁आजै	-5709
▁जुलु	-5710
▁रोका	-5711
▁बालकको	-5712
▁बस्त	-5713
▁संकल	-5714
▁अगाडी	-5715
▁बढेपछि	-5716
▁साथबाट	-5717
तीको	-5718
पोर्	-5719
▁उप्र	-5720
▁प्रकोप	-5721
▁लगाउँदै	-5722
पार्	-5723
▁अटो	-5724
▁बिग्र	-5725
▁रेडियो	-5726
▁कारोवार	-5727
▁ठक्करबाट	-5728
▁सन्दर्भमा	-5729
▁कुखु	-5730
▁सेल्	-5731
▁प्रष्ट	-5732
▁भेटिएका	-5733
▁९३	-5734
मूलक	-5735
▁ड्र	-5736
▁तिर्न	-5737
▁सुरेश	-5738
▁गाउँपालिकाले	-5739
▁ऋणपत्र	-5740
▁पृथ्वी	-5741
▁स्याङ्जा	-5742
ानको	-5743
▁भवनमा	-5744
▁नेपालीले	-5745
▁मैन	-5746
▁नपर्ने	-5747
▁नेताहरुले	-5748
▁न्यौपानेले	-5749
▁रहेछ	-5750
▁सीमित	-5751
▁जाहेरी	-5752
▁शौच	-5753
▁काला	-5754
विपरीत	-5755
▁गरिरह	-5756
▁परिषद	-5757
▁ब्राजि	-5758
▁सन्दीप	-5759
▁८३	-5760
कृया	-5761
▁बलिउड	-5762
▁जंगलमा	-5763
▁बजारको	-5764
▁मानसिक	-5765
▁महानिरीक्षक	-5766
र्नुपर्ने	-5767
▁समानुपातिक	-5768
▁काठमाडौंबाट	-5769
कोभिड	-5770
पर्ने	-5771
▁अखिल	-5772
▁महसुस	-5773
▁साहले	-5774
▁लक्ष्मण	-5775
▁शून्य	-5776
▁आदिवासी	-5777
किल	-5778
▁बागलुङ	-5779
▁नसकेपछि	-5780
▁रातो	-5781
▁बढीको	-5782
▁आकाश	-5783
▁लागी	-5784
▁ग्रुप	-5785
▁सुनिश्चित	-5786
हरि	-5787
ल्दा	-5788
सीआर	-5789
ाधीन	-5790
▁पेन	-5791
योर्क	-5792
▁सन्धि	-5793
▁नदिएको	-5794
▁रोल्पा	-5795
▁प्रस्तावित	-5796
▁विद्यालयका	-5797
जसो	-5798
आफ्नो	-5799
▁भद्र	-5800
बमोजिम	-5801
वासीले	-5802
▁काल	-5803
घाटमा	-5804
द्रिक	-5805
▁बसमा	-5806
▁भएसँगै	-5807
▁हुँ	-5808
▁प्रिमियर	-5809
▁पह	-5810
▁फ्	-5811
▁रात	-5812
ौलाले	-5813
▁कुरामा	-5814
▁अदालतका	-5815
▁महत्त्व	-5816
▁पाउनेछन्	-5817
एमा	-5818
बुझ	-5819
▁चाप	-5820
सिएसन	-5821
▁लडाकु	-5822
▁योजनामा	-5823
▁८९	-5824
ञ्जन	-5825
▁मार्च	-5826
▁जनस्वास्थ्य	-5827
▁करणी	-5828
▁जहाँ	-5829
▁मातह	-5830
▁पारिएको	-5831
▁मिल	-5832
▁कार्यल	-5833
▁मोहम्मद	-5834
▁मात्रामा	-5835
▁t	-5836
ण्ठ	-5837
▁झो	-5838
▁डुबेर	-5839
▁आकर्षक	-5840
▁बालिकाको	-5841
▁लोड	-5842
▁हेम	-5843
ेन्टि	-5844
्यारा	-5845
▁याउने	-5846
केश	-5847
जारी	-5848
▁राइ	-5849
▁स्थानिय	-5850
▁साझेदारी	-5851
▁काठमाडाैं	-5852
ज्ञात	-5853
▁९४	-5854
▁निषे	-5855
▁अभिनेत्री	-5856
▁९१	-5857
▁५००	-5858
कस्मिक	-5859
▁कर्पोर	-5860
हाम	-5861
▁हेलि	-5862
▁हराएको	-5863
▁धन्यवाद	-5864
▁कार्यक्रमलाई	-5865
गाह	-5866
गृह	-5867
▁जम	-5868
▁भावना	-5869
▁वैज्ञानिक	-5870
▁प्राध्यापक	-5871
▁सोलु	-5872
▁अभ्यास	-5873
▁बेलायती	-5874
▁प्रकारका	-5875
▁मन्दिरमा	-5876
िको	-5877
▁घाँ	-5878
▁धम्की	-5879
▁उप्रेत	-5880
▁ग्राहकलाई	-5881
▁सुरक्षाको	-5882
वाहक	-5883
▁नपाएको	-5884
▁अधिकारीलाई	-5885
▁आल	-5886
▁मनि	-5887
▁गर्नुभएको	-5888
▁आवाज	-5889
▁राती	-5890
▁सिरि	-5891
▁कल्याण	-5892
▁मोर्चाका	-5893
▁क्रियाकला	-5894
▁मी	-5895
▁जिक	-5896
▁रहन	-5897
▁जटिल	-5898
▁जसको	-5899
▁ढुंगाना	-5900
▁एच	-5901
▁सही	-5902
▁बेनी	-5903
▁सभासद	-5904
▁बुझाउन	-5905
▁सहुलियत	-5906
▁उपकुलपति	-5907
▁शल्यक्रिया	-5908
▁उपप्रधानमन्त्री	-5909
▁जंगल	-5910
▁पठाइ	-5911
▁फुटब	-5912
▁सिँच	-5913
▁उत्तरी	-5914
▁उदयपुर	-5915
▁रणनीति	-5916
▁वर्षभित्र	-5917
सनको	-5918
▁चितुवा	-5919
छो	-5920
रेर	-5921
याउने	-5922
▁इलाम	-5923
▁आउँदा	-5924
▁घाइतेको	-5925
▁चुनावमा	-5926
▁नेविसंघ	-5927
▁विश्वभर	-5928
)-	-5929
सह	-5930
मिर	-5931
ल्यै	-5932
वरले	-5933
▁गैरका	-5934
▁बेलामा	-5935
सय	-5936
▁घटेर	-5937
स्थानीय	-5938
▁निर्मा	-5939
▁पण्डित	-5940
▁पछिल्ला	-5941
▁बिरामीको	-5942
▁प्रोत्साहन	-5943
थान	-5944
▁अधिवक्ता	-5945
▁प्रतिशेयर	-5946
रहरू	-5947
तबार	-5948
▁सिलि	-5949
▁फलफूल	-5950
▁आइतवार	-5951
▁रामेछाप	-5952
▁राहदानी	-5953
▁काठमाडौंका	-5954
▁प्राथमिकतामा	-5955
▁गुल	-5956
▁ट्रे	-5957
▁तल्लो	-5958
▁पारिश्रमिक	-5959
▁गतिमा	-5960
शास्त्र	-5961
▁उपप्रमुख	-5962
▁ट्याक्सी	-5963
रै	-5964
▁जै	-5965
र्द्ध	-5966
सभाको	-5967
सकेपछि	-5968
▁आकस्मिक	-5969
▁महोत्तरी	-5970
▁आन्दोलनका	-5971
परिवार	-5972
भिल	-5973
वारण	-5974
्योति	-5975
▁जुम्ला	-5976
▁व्यापक	-5977
▁उद्योगमा	-5978
▁अल्	-5979
▁सुपर	-5980
▁सजिलो	-5981
▁आक्रोश	-5982
▁आयोगमा	-5983
▁हुनेको	-5984
▁सदस्यमा	-5985
▁निष्कासन	-5986
▁युनाइटेड	-5987
▁प्रभु	-5988
क्या	-5989
▁नभएर	-5990
▁विकासको	-5991
▁विष्टले	-5992
▁इन्चार्ज	-5993
▁प्रवद्र्धन	-5994
▁विद्यालयको	-5995
▁पोल	-5996
▁गणतन्त्र	-5997
ट्स	-5998
▁मुस्लिम	-5999
▁निरीक्षण	-6000
७४	-6001
▁बिजुली	-6002
▁विशेषज्ञ	-6003
▁संयन्त्र	-6004
▁प्रयोजनका	-6005
ाई	-6006
गोल	-6007
▁पत्रकारिता	-6008
ंले	-6009
काउ	-6010
राय	-6011
ण्डर	-6012
▁नाइ	-6013
▁यदि	-6014
▁मालपोत	-6015
विना	-6016
▁बैशाख	-6017
पावर	-6018
▁छोटो	-6019
▁एकीकरण	-6020
▁भ्रमणका	-6021
▁स्थानीयको	-6022
▁कृष्णप्रसाद	-6023
▁विश्वव्यापी	-6024
▁ली	-6025
▁जमिन	-6026
▁राखिएका	-6027
▁चिकित्सकले	-6028
घाखा	-6029
त्तर	-6030
▁उल्ल	-6031
▁गाउँका	-6032
▁गाडीमा	-6033
कीय	-6034
बाहि	-6035
न्थ्यो	-6036
▁कसैलाई	-6037
▁जाजरकोट	-6038
▁गणना	-6039
▁कामका	-6040
▁ढिलाइ	-6041
▁शिविर	-6042
▁कम्प्यु	-6043
नीय	-6044
विका	-6045
▁मनोन	-6046
▁सर्भि	-6047
कांग्रेस	-6048
▁आयोजकले	-6049
▁किट	-6050
▁कमला	-6051
▁मनाइ	-6052
▁राखि	-6053
▁अज्ञात	-6054
▁अनुमोदन	-6055
▁समुदायको	-6056
ालीले	-6057
▁जुवा	-6058
▁निधि	-6059
▁परेर	-6060
इरहेका	-6061
▁वडामा	-6062
▁त्यसले	-6063
▁आंश	-6064
▁गठित	-6065
▁रद्द	-6066
▁लगेर	-6067
▁तुलसीपुर	-6068
जस्तै	-6069
▁गौरव	-6070
▁किस्ता	-6071
▁जात्रा	-6072
▁संविधानसभाको	-6073
ठो	-6074
र्इ	-6075
आब्जा	-6076
ेन्सन	-6077
▁छात्रा	-6078
आईजी	-6079
▁सुख	-6080
▁अनुगम	-6081
▁विपरीत	-6082
▁ताप्लेजुङ	-6083
ूस	-6084
▁राजन	-6085
जाँच	-6086
▁ज्वरो	-6087
▁सर्वे	-6088
▁खोज्दा	-6089
▁फिल्मको	-6090
▁मानिसको	-6091
▁निर्वाचनका	-6092
ic	-6093
नेका	-6094
▁बाजु	-6095
▁मतगण	-6096
▁बुझ्न	-6097
▁कुमारी	-6098
▁महराले	-6099
सेना	-6100
▁काफ्	-6101
▁बहुमत	-6102
▁नेम्वा	-6103
▁उद्योगी	-6104
▁सुरुवात	-6105
▁अनियमितता	-6106
▁डिस्चार्ज	-6107
▁सहकार्यमा	-6108
▁सहमत	-6109
▁कैलाली	-6110
▁बुधवार	-6111
▁मिलाउन	-6112
▁यहाँको	-6113
संर	-6114
▁छाडेर	-6115
▁संग्रह	-6116
▁सूचीकृत	-6117
विज	-6118
सुन	-6119
क्वा	-6120
तर्फको	-6121
▁जिकिर	-6122
▁जबर	-6123
▁सक्छन्	-6124
▁त्यसो	-6125
▁चरि	-6126
▁गोर्	-6127
▁निर्देशनालय	-6128
७७	-6129
▁अर्थात	-6130
▁खोज्ने	-6131
▁दिवसको	-6132
▁मृतकका	-6133
▁चालकलाई	-6134
▁ओखलढुंगा	-6135
जका	-6136
ठान	-6137
▁मार्	-6138
▁प्रदर्शनकारी	-6139
▁अनुप	-6140
▁श्रे	-6141
▁मेलम्	-6142
▁घोराही	-6143
▁मनोनयन	-6144
▁प्रकृया	-6145
▁आयोजनाले	-6146
▁आन्दोलनको	-6147
▁गच्छ	-6148
▁क्रमशः	-6149
▁शौचालय	-6150
▁प्रत्यारोपण	-6151
▁खस्	-6152
▁निरा	-6153
▁निवारण	-6154
▁गुलरिया	-6155
▁बुझाएका	-6156
घाखाँच	-6157
▁आफूहरु	-6158
▁आफन्तले	-6159
▁महासंघको	-6160
वाको	-6161
गण्डकी	-6162
▁खोल्न	-6163
▁संस्थामा	-6164
▁गुणस्तरीय	-6165
▁क्वारेन्टाइन	-6166
त्रि	-6167
▁मधु	-6168
▁राउत	-6169
▁सस्तो	-6170
▁शनिवार	-6171
▁महाधिवेश	-6172
स्थापना	-6173
▁यद्यपि	-6174
▁सक्दैन	-6175
माको	-6176
▁शपथ	-6177
▁मनाउने	-6178
▁आक्रमणमा	-6179
▁क्षमताको	-6180
खर्क	-6181
▁खिच	-6182
प्रेस	-6183
सरकारी	-6184
▁बराबरी	-6185
कान्तिपुर	-6186
or	-6187
रल	-6188
▁व्यापारिक	-6189
▁सिद्धार्थ	-6190
खत	-6191
▁मेघ	-6192
जन्तु	-6193
▁गुणा	-6194
▁आनन्द	-6195
▁घोषित	-6196
▁रह्यो	-6197
▁दायित्व	-6198
▁क्यान्सर	-6199
▁नपुग	-6200
▁आवतजा	-6201
▁माइती	-6202
▁बर्षीय	-6203
▁अस्वीकार	-6204
घरमा	-6205
▁मुआब्जा	-6206
▁सिन्धुली	-6207
▁गएराति	-6208
▁सदस्यले	-6209
▁मोर्चाले	-6210
▁प्राधिकरणको	-6211
▁शिवि	-6212
▁बढ्दो	-6213
▁उद्दार	-6214
▁हावाहु	-6215
▁चितवनको	-6216
सीय	-6217
▁इस्	-6218
वालले	-6219
▁सुरक्षाका	-6220
▁लिम्बु	-6221
▁आधारभूत	-6222
आज	-6223
हरूका	-6224
▁चुहा	-6225
▁डेभल	-6226
▁क्लबले	-6227
▁थुप्रै	-6228
▁अर्याल	-6229
▁एभर	-6230
▁कोट	-6231
▁गीतमा	-6232
▁कँ	-6233
रालो	-6234
मित्व	-6235
▁ठुलो	-6236
▁एपीएफ	-6237
▁धर्ना	-6238
▁जनजीवन	-6239
▁जग्गाको	-6240
चौर	-6241
▁निजा	-6242
▁पुगि	-6243
▁पश्चात	-6244
▁श्रेष्ठलाई	-6245
पाटी	-6246
▁घूस	-6247
▁विव	-6248
▁मापन	-6249
▁विस्थापित	-6250
गडा	-6251
प्रिय	-6252
▁दूरी	-6253
▁लहान	-6254
▁बाध्यता	-6255
▁मौद्रिक	-6256
▁शरण	-6257
▁प्रदर्शनी	-6258
▁संक्रमणको	-6259
ंगी	-6260
शरण	-6261
▁दमक	-6262
▁तातो	-6263
▁आंशिक	-6264
▁मृ	-6265
▁नेग	-6266
▁ट्रया	-6267
▁विशाल	-6268
▁अतिक्रमण	-6269
▁महामन्त्री	-6270
१६	-6271
निङ	-6272
▁बल्	-6273
▁सिद्ध	-6274
▁बिन्दु	-6275
▁निवासमा	-6276
▁व्यवस्थापिका	-6277
सिस	-6278
कल्प	-6279
▁कल्	-6280
▁होस्	-6281
▁गोदा	-6282
लभ	-6283
बासी	-6284
▁हातमा	-6285
आउ	-6286
दको	-6287
पल्ट	-6288
ारको	-6289
▁गिरा	-6290
यात्रा	-6291
▁शेयरधनी	-6292
▁अख्तियारको	-6293
धारा	-6294
▁मृतकको	-6295
क्षम	-6296
मुनि	-6297
रास्व	-6298
▁महाराजग	-6299
▁मङ्गलबार	-6300
▁शंकास्पद	-6301
▁सप्तरीको	-6302
▁आउँ	-6303
ब्लिक	-6304
▁स्पे	-6305
▁हस्प	-6306
▁कटौती	-6307
▁जिम्मेवार	-6308
ट्र	-6309
पोखरी	-6310
प्तीमा	-6311
▁दर्शन	-6312
▁मण्डल	-6313
▁सिँचाइ	-6314
▁प्रकारको	-6315
▁स्वामित्व	-6316
ीता	-6317
▁बैठकको	-6318
▁रोनाल्	-6319
▁जबरजस्ती	-6320
▁झि	-6321
तीले	-6322
▁विद्य	-6323
▁बोकेको	-6324
▁मोदीले	-6325
▁कुकुर	-6326
▁मागेको	-6327
▁गच्छदार	-6328
▁सञ्जालमा	-6329
▁अधिकारीहरुले	-6330
तीन	-6331
▁एटी	-6332
▁सागर	-6333
निस	-6334
ह्रो	-6335
ानले	-6336
नीकरण	-6337
▁तारि	-6338
▁स्ना	-6339
▁हिन्दु	-6340
▁गाविसमा	-6341
▁कर्त	-6342
▁केदार	-6343
▁यादवलाई	-6344
▁कोरियाली	-6345
ंै	-6346
▁नाच	-6347
सेन्स	-6348
▁कन्स	-6349
▁पाइन्छ	-6350
▁प्रदर्शनमा	-6351
...	-6352
▁काभ्र	-6353
▁गुप्ता	-6354
▁असन्तुष्टि	-6355
ीक	-6356
बहि	-6357
ुली	-6358
▁अछा	-6359
▁कतै	-6360
▁नन्द	-6361
▁सभाको	-6362
▁फिट	-6363
कालिन	-6364
ड्रिड	-6365
▁मित्र	-6366
▁लक्षण	-6367
▁प्रयोगशाला	-6368
मय	-6369
ङ्का	-6370
ग्राम	-6371
स्तोल	-6372
▁खराब	-6373
▁जितेका	-6374
▁बसोबास	-6375
▁विक्रम	-6376
▁हाम्रा	-6377
▁पौडेलको	-6378
▁पथ	-6379
▁ब्रो	-6380
▁सुमन	-6381
▁थापालाई	-6382
▁वर्षाको	-6383
▁लगानीकर्ताले	-6384
लिज	-6385
▁भोग	-6386
▁विसं	-6387
▁बिषयमा	-6388
▁उपप्रधान	-6389
▁गैं	-6390
▁चोकमा	-6391
▁नाकामा	-6392
▁अनुसन्धानमा	-6393
नुनी	-6394
▁गहि	-6395
▁छाया	-6396
▁सार्क	-6397
▁सदस्यको	-6398
▁पल्	-6399
▁चाँडै	-6400
▁प्याकेज	-6401
▁९७	-6402
रानी	-6403
▁नदेख	-6404
▁चर्को	-6405
▁कालोपत्र	-6406
▁सम्मानित	-6407
▁क्रान्तिकारी	-6408
पार	-6409
ञ्जी	-6410
वरको	-6411
▁कैदी	-6412
▁मद्द	-6413
▁कँडेल	-6414
▁रिक्त	-6415
▁निकायले	-6416
▁बैंकलाई	-6417
▁आयोजनाका	-6418
▁संशोधनको	-6419
ंकी	-6420
ड्य	-6421
ौडा	-6422
▁कठिन	-6423
ोने	-6424
▁काय	-6425
▁बाघ	-6426
▁२०४	-6427
▁दीर्घ	-6428
▁हैसिय	-6429
दृ	-6430
बाहक	-6431
▁सडकबाट	-6432
▁महाकाली	-6433
▁लगानीमा	-6434
▁आइपुगेका	-6435
▁बालुवाटार	-6436
▁साधारणसभा	-6437
▁ष	-6438
रुण	-6439
्याग	-6440
▁झरेको	-6441
▁नयाँद	-6442
▁कलेजमा	-6443
▁छुट्टा	-6444
le	-6445
▁१९९	-6446
▁झाले	-6447
।&#39;	-6448
▁मध्यम	-6449
▁संखुवा	-6450
न्यजन्तु	-6451
बाजी	-6452
▁चलन	-6453
▁रोज	-6454
▁अबको	-6455
▁गोल्	-6456
▁प्रकट	-6457
▁सम्पदा	-6458
▁शक्तिशाली	-6459
▁रहनेछ	-6460
▁अभिवृद्धि	-6461
▁अर्घाखाँच	-6462
ब्य	-6463
परित	-6464
बापत	-6465
▁हकमा	-6466
स्तानी	-6467
▁कार्यद	-6468
▁हिमालयन	-6469
▁डल	-6470
▁बनेपा	-6471
▁मोरङको	-6472
▁बिर्तामो	-6473
१३	-6474
१४	-6475
▁हृ	-6476
लनाथ	-6477
▁चाहने	-6478
▁निकाल	-6479
▁सरकारबाट	-6480
▁वर्षभन्दा	-6481
च्या	-6482
हरूसँग	-6483
▁कुवेत	-6484
▁लन्डन	-6485
▁विपन्न	-6486
▁तत्कालै	-6487
▁राष्ट्रपतिले	-6488
ग्दै	-6489
्र्त	-6490
क्ष्मी	-6491
▁प्रविधिको	-6492
▁लामिछानेले	-6493
सिप	-6494
ेडे	-6495
बिया	-6496
▁रही	-6497
कालमा	-6498
▁कार्कीको	-6499
▁महेन्द्रनगर	-6500
तोला	-6501
▁गइरहेको	-6502
▁लेखिएको	-6503
हना	-6504
▁टेक्	-6505
ानुमान	-6506
▁डेभलप	-6507
▁यसपटक	-6508
▁बोलाएको	-6509
▁ब्याटिङ	-6510
▁कामदारको	-6511
▁सीता	-6512
▁खोल्ने	-6513
▁मार्ने	-6514
▁श्रीमान्	-6515
▁रोनाल्डो	-6516
▁जोडी	-6517
▁अधिवेश	-6518
▁छानविन	-6519
▁कूटनीतिक	-6520
▁समस्यामा	-6521
▁प्ले	-6522
▁उहाँको	-6523
▁फाउन्ड	-6524
▁बन्दुक	-6525
▁तरिकाले	-6526
▁बनाउँदै	-6527
▁लागूऔषध	-6528
२५	-6529
वर्ती	-6530
▁कडाइ	-6531
▁फर्म	-6532
▁नमिल्	-6533
▁अनुपात	-6534
▁एसएसपी	-6535
▁सुरुमा	-6536
▁वास्तविक	-6537
▁राष्ट्रपतिको	-6538
केन्द्र	-6539
▁दिनपछि	-6540
▁वेब	-6541
▁भानु	-6542
▁हङकङ	-6543
▁लगेको	-6544
▁हिसाबले	-6545
▁अध्यादेश	-6546
▁प्रादेशिक	-6547
▁सिद्धान्त	-6548
काजी	-6549
▁उका	-6550
भिट्टा	-6551
▁देखिए	-6552
▁स्मरण	-6553
▁सुनाएको	-6554
▁आउँछ	-6555
▁आउनु	-6556
▁इच्छा	-6557
▁नोक्स	-6558
▁पसलमा	-6559
▁समाप्त	-6560
▁अफ्र	-6561
▁२०१६	-6562
▁ब्रान्ड	-6563
▁विमानस्थलको	-6564
बुल	-6565
कोप्टर	-6566
न्धि	-6567
परेको	-6568
▁कब्जा	-6569
▁गतेको	-6570
▁समितिलाई	-6571
▁प्रतिवद्ध	-6572
▁निर्देशिका	-6573
▁क्य	-6574
▁साग	-6575
▁परिमा	-6576
▁हेरेर	-6577
▁सुशासन	-6578
▁पेस्तोल	-6579
▁मानिन्छ	-6580
▁आफैँ	-6581
▁म्याने	-6582
▁साताको	-6583
ानै	-6584
िरहेको	-6585
▁नेगेटिभ	-6586
▁उत्रिएका	-6587
▁सर्वसम्म	-6588
ion	-6589
▁अलग	-6590
▁सवै	-6591
ित्तिकै	-6592
▁राज्यले	-6593
▁कामना	-6594
▁डिजेल	-6595
▁महतले	-6596
▁अनेरास्व	-6597
▁सर्वसाधारणलाई	-6598
ठे	-6599
हिता	-6600
▁ट्वि	-6601
▁सुनिल	-6602
▁पूर्वानुमान	-6603
दत्त	-6604
▁एभरे	-6605
▁चेकजाँच	-6606
जल	-6607
स्पो	-6608
▁उर्	-6609
▁खरी	-6610
लेक्ट	-6611
ष्कार	-6612
▁खानी	-6613
▁नियमन	-6614
▁चलिरहेको	-6615
ब्ब	-6616
▁उद	-6617
मोहन	-6618
▁तीर्थ	-6619
वीन्द्र	-6620
▁महाअभि	-6621
प्य	-6622
ायक	-6623
▁कोहल	-6624
▁बिता	-6625
▁वाग्	-6626
कल्पिक	-6627
▁टोलीका	-6628
▁नाकाबाट	-6629
▁श्रद्धा	-6630
▁वार्तामा	-6631
▁राजमार्गको	-6632
▁स्वास्थ्यमा	-6633
लास	-6634
▁खुशी	-6635
लेश्वर	-6636
▁कोषको	-6637
▁तपाईं	-6638
▁पीसीआर	-6639
▁रुपैया	-6640
▁लाग्दा	-6641
▁युवालाई	-6642
क्लो	-6643
पिटल	-6644
▁हाइ	-6645
▁बीबी	-6646
▁विभा	-6647
▁नदीको	-6648
▁मौलिक	-6649
▁गुरुङको	-6650
तर्फी	-6651
▁गौरी	-6652
वास्ता	-6653
▁गाह्रो	-6654
▁बगाएको	-6655
▁मुद्धा	-6656
▁गर्नुका	-6657
▁दाहालको	-6658
▁नजिकैको	-6659
▁पदार्थको	-6660
▁गाउ	-6661
▁विषा	-6662
▁ओलीलाई	-6663
▁संचालनमा	-6664
भग	-6665
रहे	-6666
▁हारा	-6667
▁हल्का	-6668
▁खेलेको	-6669
▁किनारमा	-6670
▁राज्यमन्त्री	-6671
ँटा	-6672
▁धनी	-6673
▁परिक	-6674
▁२०१७	-6675
▁बसपार्क	-6676
▁बैंकबाट	-6677
▁प्रकरणमा	-6678
▁सातादेखि	-6679
रहने	-6680
▁तेह्र	-6681
▁टोलीलाई	-6682
▁पोष्टमार्ट	-6683
ँचो	-6684
▁फ्र	-6685
▁तस्करी	-6686
▁काउन्टर	-6687
▁स्थानबाट	-6688
लस	-6689
लामी	-6690
▁बिच	-6691
▁मर्या	-6692
▁साइकल	-6693
▁एनआरएन	-6694
▁लागुऔषध	-6695
▁हेलिकोप्टर	-6696
ur	-6697
▁बझा	-6698
लगायतले	-6699
▁प्रबन्धक	-6700
▁बाँस्कोटाले	-6701
▁कच्चा	-6702
▁टेस्ट	-6703
▁क्यापिटल	-6704
▁तथ्याङ्क	-6705
▁सर्वेक्षण	-6706
भो	-6707
भेद	-6708
▁एप	-6709
ब्बर	-6710
▁पति	-6711
▁परिण	-6712
▁रेखा	-6713
▁लापर	-6714
▁भेट्न	-6715
▁फर्केका	-6716
▁मारिएका	-6717
ग्दा	-6718
च्यु	-6719
ालमा	-6720
▁घेरा	-6721
▁एशिया	-6722
▁करेन्ट	-6723
▁ठोक्कि	-6724
▁पार्दै	-6725
▁राप्ती	-6726
▁किसानले	-6727
▁सयौं	-6728
▁चन्दा	-6729
ंदा	-6730
▁अड्	-6731
▁सम्व	-6732
▁खोज्न	-6733
▁महतोले	-6734
▁त्यहाँको	-6735
▁विशि	-6736
▁जानुप	-6737
▁सिभिल	-6738
▁उत्पादक	-6739
▁संघीयता	-6740
▁सकिएपछि	-6741
▁गर्नेलाई	-6742
▁बोलाइएको	-6743
▁प्रतिपक्ष	-6744
चाँ	-6745
▁स्वयं	-6746
▁तामाङको	-6747
▁विभागमा	-6748
▁हाराहारी	-6749
ed	-6750
वटै	-6751
▁फस	-6752
नयाँ	-6753
▁अनौ	-6754
▁जगे	-6755
▁डिसे	-6756
मारीको	-6757
▁आईपीओ	-6758
▁हाफमा	-6759
▁हुनाले	-6760
केका	-6761
थोकी	-6762
▁शीत	-6763
▁विपद्	-6764
▁प्रशंसा	-6765
▁गैरकानुनी	-6766
▁इन्टरनेसनल	-6767
ep	-6768
पट	-6769
▁चाहेको	-6770
▁डिल्ली	-6771
▁संवेदन	-6772
नर	-6773
शेर	-6774
ख्रा	-6775
चण्ड	-6776
रासस	-6777
▁उपलब्धि	-6778
▁पार्किङ	-6779
▁सतर्कता	-6780
▁सीप	-6781
▁आवमा	-6782
▁एक्का	-6783
▁अभिभावक	-6784
▁राजमार्गमा	-6785
थ्य	-6786
लैया	-6787
▁गराएर	-6788
▁नभएसम्म	-6789
▁प्रदायक	-6790
▁वन्यजन्तु	-6791
▁महिनाभित्र	-6792
▁मार्क	-6793
▁चौधरीको	-6794
▁सांसदले	-6795
▁प्रतितोला	-6796
ंगो	-6797
▁नेटवर्क	-6798
▁माधवकुमार	-6799
धर	-6800
▁मिलन	-6801
रोजगार	-6802
▁गर्दैछ	-6803
▁टोलीको	-6804
▁समाजका	-6805
▁नारायणगढ	-6806
▁जलविद्युत	-6807
▁दान	-6808
▁बृह	-6809
▁नाटक	-6810
▁एकेडे	-6811
▁झलनाथ	-6812
▁दिनका	-6813
▁चालकको	-6814
▁थिएनन्	-6815
▁प्रतिशतसम्म	-6816
धाम	-6817
भिर	-6818
▁स्वि	-6819
▁विपक्ष	-6820
▁एमालेको	-6821
▁अह	-6822
▁पन्छ	-6823
विजेता	-6824
स्तरमा	-6825
हिल्यै	-6826
▁गरिदि	-6827
▁बिभिन्न	-6828
▁सम्भावित	-6829
▁कम्प्युटर	-6830
▁दीपेन्द्र	-6831
काइ	-6832
▁वता	-6833
▁पढाइ	-6834
▁एटीएम	-6835
▁नीतिगत	-6836
▁सरसफाइ	-6837
▁तालाबन्दी	-6838
▁संस्थालाई	-6839
वु	-6840
▁तान	-6841
▁कागज	-6842
▁टिपर	-6843
▁सरोज	-6844
जेन्टि	-6845
▁पेनाल्	-6846
▁खडा	-6847
▁निमा	-6848
▁बीपी	-6849
्यान्स	-6850
▁पार्टीमा	-6851
▁शुक्रवार	-6852
दमा	-6853
मिता	-6854
▁टेकु	-6855
▁अर्जेन्टि	-6856
▁खल	-6857
▁उसको	-6858
▁ओसार	-6859
▁गराई	-6860
▁रहेकी	-6861
▁प्रशासकीय	-6862
▁ढिला	-6863
▁कान्छ	-6864
▁दरबन्दी	-6865
▁पुरस्कृत	-6866
▁बढिरहेको	-6867
▁अफर	-6868
▁दिई	-6869
▁बुक	-6870
▁गिरि	-6871
▁एक्सच	-6872
▁पर्दा	-6873
▁मनाउन	-6874
पेन्द्र	-6875
▁देखेपछि	-6876
▁परिक्षण	-6877
▁बुझाउने	-6878
▁बजेर	-6879
▁मगरले	-6880
▁गिरावट	-6881
▁समस्याको	-6882
▁संघसंस्था	-6883
छी	-6884
७३	-6885
ेषण	-6886
चालक	-6887
श्मी	-6888
▁तारिख	-6889
▁परिणत	-6890
▁सरस्व	-6891
डु	-6892
ेटा	-6893
▁अनसन	-6894
मैत्री	-6895
▁चाँदी	-6896
▁बित	-6897
दर्शी	-6898
सिद्ध	-6899
▁साविक	-6900
▁कार्यदल	-6901
ङ्गो	-6902
▁बेस	-6903
▁तहले	-6904
▁मुगु	-6905
▁किन्न	-6906
▁बचाउन	-6907
▁तीनवटा	-6908
▁उमेश	-6909
▁विमा	-6910
▁सिलव	-6911
▁उद्यमी	-6912
▁फेसबुक	-6913
▁संगठनले	-6914
▁पत्राचार	-6915
▁कारबाहीको	-6916
हिक	-6917
▁ल्	-6918
▁थ्री	-6919
▁द्वि	-6920
▁लडेर	-6921
▁पर्वत	-6922
▁प्राय	-6923
▁डिग्री	-6924
▁लगानीको	-6925
▁एसोसिएसन	-6926
▁सेमिफाइनलमा	-6927
▁बालबालिकालाई	-6928
div	-6929
सबै	-6930
साग	-6931
▁अमर	-6932
पछिको	-6933
▁बिक्र	-6934
▁रकमको	-6935
▁बनाउनु	-6936
▁प्रतिद्व	-6937
om	-6938
राँ	-6939
▁सँग	-6940
लिखेल	-6941
▁लोकप्रिय	-6942
▁पाकिस्तानी	-6943
▁निर्माणाधीन	-6944
धाई	-6945
र्टर	-6946
ृत्य	-6947
▁बनि	-6948
वीकरण	-6949
▁दूरस	-6950
छुट्टै	-6951
▁बेल्ज	-6952
▁भ्रमणको	-6953
▁उपाध्यक्षमा	-6954
उक्त	-6955
संरचना	-6956
▁स्तरो	-6957
▁आकर्षण	-6958
▁टेलिफोन	-6959
▁उत्पादनमा	-6960
▁सञ्चालनका	-6961
▁आप्र	-6962
▁निर्माता	-6963
▁मन्त्रालयलाई	-6964
ृंख	-6965
जनमा	-6966
▁उता	-6967
▁गाविसका	-6968
स्सा	-6969
▁दम्प	-6970
▁बोलाएर	-6971
▁भाडामा	-6972
▁विन्दु	-6973
▁जुनसुकै	-6974
▁बुढाथोकी	-6975
▁कार्यकर्तालाई	-6976
▁दाउ	-6977
म्बार	-6978
▁ढिलो	-6979
▁मिले	-6980
▁बाइ	-6981
▁हेरि	-6982
▁टिमले	-6983
▁चीनबाट	-6984
▁संचालक	-6985
▁दूरसञ्चार	-6986
श्री	-6987
▁हिँ	-6988
▁निषेध	-6989
यौँ	-6990
▁उखु	-6991
▁दिदी	-6992
▁पारी	-6993
▁दृश्य	-6994
▁चुहावट	-6995
▁तिमिल्	-6996
▁सयभन्दा	-6997
▁न्यूनीकरण	-6998
औँ	-6999
बिना	-7000
▁खाँ	-7001
▁पका	-7002
▁पावर	-7003
▁शुद्ध	-7004
▁दस	-7005
▁संचार	-7006
प्रचण्ड	-7007
▁कोइरालाको	-7008
▁प्रवृत्ति	-7009
▁बालबालिकाको	-7010
▁प्रतिशतभन्दा	-7011
▁घन	-7012
▁नरो	-7013
▁प्यान	-7014
▁प्राइ	-7015
माओवादीले	-7016
▁प्रस्थान	-7017
चानक	-7018
▁टिका	-7019
▁भनिने	-7020
▁भन्नु	-7021
▁मिर्ग	-7022
▁डिजाइन	-7023
▁थपिएको	-7024
▁फर्किने	-7025
▁चेत	-7026
▁गर्भ	-7027
▁शासन	-7028
▁सहरी	-7029
▁सिस्ट	-7030
क्रान्ति	-7031
▁रुपैयाँभन्दा	-7032
शू	-7033
बाहिर	-7034
▁इतिहास	-7035
▁बुद्धि	-7036
▁मल्लले	-7037
▁बोर्डको	-7038
▁म्युजिक	-7039
▁जिल्लाबाट	-7040
▁मसान्तसम्म	-7041
राका	-7042
▁घटनाका	-7043
▁लघुवित्	-7044
षर्	-7045
यरिङ	-7046
▁बन्दी	-7047
▁रहँदा	-7048
▁विवेक	-7049
▁सभाले	-7050
▁खेल्दै	-7051
▁मूर्ति	-7052
▁शिविरमा	-7053
▁विदेशमन्त्री	-7054
दित	-7055
▁खोप	-7056
▁इकाई	-7057
▁कुर्	-7058
▁चट्याङ	-7059
▁मानन्ध	-7060
▁प्रमाणित	-7061
बेर	-7062
क्षी	-7063
▁सत्र	-7064
▁देवकोटा	-7065
▁निर्णायक	-7066
▁लकडाउनका	-7067
▁महिनासम्म	-7068
▁विश्वकर्मा	-7069
▁रेमिट्यान्स	-7070
अम	-7071
सहर	-7072
▁गम्	-7073
जीकरण	-7074
▁उत्तम	-7075
▁भुटान	-7076
▁स्थिर	-7077
▁सामग्र	-7078
▁समयसम्म	-7079
▁स्तरोन्न	-7080
▁सर्वसाधारणको	-7081
▁नवीन	-7082
▁सर्त	-7083
▁लाखको	-7084
▁स्वदेशी	-7085
▁भिडियोमा	-7086
दायी	-7087
बैठक	-7088
▁सपथ	-7089
▁एनसेल	-7090
▁खालको	-7091
▁सुनसरीको	-7092
ईको	-7093
▁प्यू	-7094
▁अतिथि	-7095
▁लमजुङ	-7096
नजर	-7097
बिक	-7098
न्डा	-7099
▁खास	-7100
▁लिँदै	-7101
▁झापाका	-7102
नियर	-7103
▁इला	-7104
▁भलि	-7105
▁आपसी	-7106
▁सिजन	-7107
▁सिने	-7108
▁बोग	-7109
▁गाँउ	-7110
▁जापानी	-7111
▁कर्तव्य	-7112
▁नयाँदिल्ली	-7113
▁उन्	-7114
▁उमा	-7115
▁गरिब	-7116
५०	-7117
खास्त	-7118
▁माल्	-7119
▁ट्रेड	-7120
▁पुर्व	-7121
▁गायिका	-7122
▁नसकिएको	-7123
▁टस	-7124
▁उभि	-7125
▁२०२	-7126
▁स्टा	-7127
▁सशक्त	-7128
मबहादुर	-7129
▁हटाउने	-7130
▁भैरहेको	-7131
▁विश्लेषण	-7132
▁लिमिटेडको	-7133
नपा	-7134
▁आवद्ध	-7135
▁निगमको	-7136
▁बजेटको	-7137
▁बाँडफा	-7138
▁छनौ	-7139
▁म्याग्दी	-7140
ताप	-7141
▁चाइ	-7142
▁गोकुल	-7143
▁चित्त	-7144
▁मर्जर	-7145
▁गठबन्धन	-7146
पेट	-7147
ल्ब	-7148
▁आदान	-7149
▁बताइ	-7150
िरहेका	-7151
▁गीतको	-7152
▁नृत्य	-7153
▁पहलमा	-7154
▁पठाएका	-7155
▁अदालतबाट	-7156
▁खेलाडीले	-7157
उदै	-7158
ेलो	-7159
क्ला	-7160
रहँदा	-7161
▁पुस्ता	-7162
▁मुलुकलाई	-7163
▁बिहानैदेखि	-7164
ुरू	-7165
▁दुइ	-7166
▁नखु	-7167
▁मस्	-7168
▁हनु	-7169
स्टार	-7170
▁उद्धृत	-7171
▁विद्रो	-7172
कडभिट्टा	-7173
▁खत्रीले	-7174
▁नमिल्ने	-7175
▁महासङ्घ	-7176
▁लाइसेन्स	-7177
▁प्रस्तावमा	-7178
▁स्वतन्त्रता	-7179
गरि	-7180
ताब	-7181
▁शरीर	-7182
▁सैन्य	-7183
▁शाखाका	-7184
यन्त्रित	-7185
▁प्रधाना	-7186
▁शर्माको	-7187
▁राष्ट्रियसभा	-7188
▁गरेपनि	-7189
▁गरेकोमा	-7190
▁असन्तुष्ट	-7191
▁संवेदनशील	-7192
ौता	-7193
▁खाल्	-7194
▁अचानक	-7195
▁गल्ती	-7196
▁ज्योति	-7197
▁पटकपटक	-7198
ईमा	-7199
▁कठि	-7200
ग्लिन	-7201
▁बधाई	-7202
▁मनाङ	-7203
▁पुलिस	-7204
▁मैत्री	-7205
▁वस्तुको	-7206
▁विशिष्ट	-7207
ेश्वरी	-7208
▁जुलुस	-7209
गेन्द्र	-7210
▁अनुहार	-7211
▁खेलाडीलाई	-7212
पुल	-7213
▁एनएम	-7214
▁चापा	-7215
▁शरीरमा	-7216
▁निर्मला	-7217
ख्य	-7218
दले	-7219
▁आयु	-7220
▁बसन्त	-7221
▁सुनार	-7222
▁इलेक्ट	-7223
▁मही	-7224
▁खरीद	-7225
▁उत्साह	-7226
▁नम्बरमा	-7227
▁नागरिकले	-7228
▁महानगरपालिकाले	-7229
जिर	-7230
▁मेची	-7231
▁आर्मी	-7232
▁देशलाई	-7233
▁भएकोमा	-7234
▁कोरोनाभाइ	-7235
▁गोक	-7236
▁२०७७	-7237
सम्पाद	-7238
▁बाह्र	-7239
▁अभावमा	-7240
▁ब्युरो	-7241
▁वैकल्पिक	-7242
▁उपत्यकाका	-7243
ँट	-7244
लेक	-7245
▁खसेर	-7246
हाम्रो	-7247
▁ओरालो	-7248
▁गर्भव	-7249
▁क्यामे	-7250
▁निकाल्न	-7251
▁सम्झौतामा	-7252
स्न	-7253
ह्य	-7254
▁पुग्दा	-7255
▁प्राप्	-7256
▁नेत्रविक्रम	-7257
ईओ	-7258
ent	-7259
▁गोप्य	-7260
▁जग्गामा	-7261
बडी	-7262
बाल	-7263
बाटो	-7264
ण्डमा	-7265
▁हालत	-7266
▁जातीय	-7267
▁खोलाको	-7268
▁निजामती	-7269
▁अनियन्त्रित	-7270
तारी	-7271
न्दि	-7272
पहिरो	-7273
▁अक्ष	-7274
▁गोर्खा	-7275
▁पाँचथर	-7276
▁मतगणना	-7277
▁राखिने	-7278
▁धुलिखेल	-7279
▁प्रस्तुति	-7280
ारू	-7281
▁पट	-7282
▁सृ	-7283
▁अलि	-7284
▁गैंडा	-7285
▁उदाहरण	-7286
▁नारायणी	-7287
▁सहजीकरण	-7288
तन	-7289
▁वर	-7290
▁छैट	-7291
नाल्ड	-7292
▁अपिल	-7293
खुम्बु	-7294
▁जितेर	-7295
▁कुखुरा	-7296
▁पुगेपछि	-7297
▁पुर्पक्ष	-7298
साम	-7299
▁जगत	-7300
▁शोक	-7301
यसअघि	-7302
▁कोरि	-7303
▁चल्न	-7304
▁चिनी	-7305
▁धरौटी	-7306
▁विधेयकमा	-7307
▁परीक्षणको	-7308
st	-7309
शिल	-7310
▁पल्ट	-7311
▁रोक्ने	-7312
▁सिंगापुर	-7313
▁भट्टराईको	-7314
▁बार्सिलोना	-7315
लता	-7316
याको	-7317
▁डाटा	-7318
▁बाँच	-7319
▁खस्दा	-7320
▁समक्ष	-7321
▁कम्तिमा	-7322
▁किसिमको	-7323
▁संसद्मा	-7324
ंगु	-7325
प्ट	-7326
▁रेट	-7327
▁नराख	-7328
▁तिब्ब	-7329
▁विपरित	-7330
▁सुनचाँ	-7331
▁अभिनेता	-7332
▁मुलुकभर	-7333
▁परम्परागत	-7334
▁भन्नेबारे	-7335
ाए	-7336
तिय	-7337
▁घाई	-7338
यस्तै	-7339
▁गरेमा	-7340
▁पुर्न	-7341
▁प्रेर	-7342
▁मध्यनजर	-7343
▁तै	-7344
▁ग्य	-7345
▁ज्य	-7346
रुन्त	-7347
▁गोलले	-7348
▁तीमध्ये	-7349
▁तेह्रथु	-7350
▁संसद्को	-7351
▁संविधानमा	-7352
▁ज्ञापनपत्र	-7353
▁बनाउनुपर्ने	-7354
पाट	-7355
▁खपत	-7356
▁झगडा	-7357
▁महँग	-7358
▁हुम्	-7359
▁स्कुटर	-7360
▁नकारात्मक	-7361
▁महाअभियोग	-7362
▁विज्ञप्तीमा	-7363
▁बास	-7364
ानीले	-7365
▁सकिनेछ	-7366
▁यात्रुको	-7367
महि	-7368
▁झण्डा	-7369
▁राईलाई	-7370
▁सकेनन्	-7371
▁रिजालले	-7372
ेसि	-7373
▁खै	-7374
▁हेल्	-7375
▁उमेरमा	-7376
▁ललितपुरको	-7377
िकृत	-7378
जनाको	-7379
▁लेखक	-7380
▁अन्दा	-7381
▁ताप्लेजु	-7382
▁रोजगारीका	-7383
▁सिफारिसमा	-7384
बस	-7385
लिस	-7386
भूति	-7387
▁अपर	-7388
▁चाहिँ	-7389
▁भाइरसका	-7390
यका	-7391
▁गरिबी	-7392
▁अपराह्न	-7393
▁सुनुवाई	-7394
▁परिचयपत्र	-7395
▁रुपैयाँसम्म	-7396
आउट	-7397
किए	-7398
▁फौ	-7399
जेन्ट	-7400
▁खुकुरी	-7401
▁निकायमा	-7402
▁लोकसेवा	-7403
▁साहित्यकार	-7404
दिभ	-7405
त्यसै	-7406
भाविक	-7407
्वासन	-7408
▁दिपक	-7409
▁प्रिय	-7410
▁गाडीको	-7411
▁डोनाल्ड	-7412
▁रवीन्द्र	-7413
▁काठमाडौँः	-7414
▁आइतबारदेखि	-7415
मृत	-7416
▁अवकाश	-7417
▁नवीकरण	-7418
▁विश्वविद्यालयका	-7419
▁दवा	-7420
ेन्टी	-7421
सिनाले	-7422
▁निकालिएको	-7423
▁प्रवर्द्ध	-7424
▁प्रतिवद्धता	-7425
▁अजय	-7426
▁मुटु	-7427
▁युवक	-7428
▁पुलको	-7429
▁सालको	-7430
▁कालिकोट	-7431
ing	-7432
कोण	-7433
क्कै	-7434
▁परा	-7435
▁खासै	-7436
▁डाँडा	-7437
लगायतको	-7438
▁जित्ने	-7439
आवास	-7440
िकार	-7441
▁फैला	-7442
▁लगाई	-7443
वृत्ति	-7444
▁लाग्यो	-7445
▁तुरुन्त	-7446
▁इन्स्योरेन्	-7447
कू	-7448
▁पछ	-7449
धारी	-7450
सूची	-7451
▁हेड	-7452
पूँजी	-7453
▁आकार	-7454
▁कसले	-7455
▁पहाड	-7456
लेन्द्र	-7457
▁गोकर्ण	-7458
▁पुग्यो	-7459
▁लगायतको	-7460
▁क्रियाकलाप	-7461
▁छुट्टाछुट्टै	-7462
ec	-7463
▁a	-7464
ide	-7465
जंग	-7466
▁ध्व	-7467
▁बहा	-7468
बिधान	-7469
▁फ्रि	-7470
▁बहान	-7471
▁भेरी	-7472
▁महसुल	-7473
▁सहरमा	-7474
▁उठाउने	-7475
▁ज्येष्ठ	-7476
१७	-7477
लिपि	-7478
▁कृति	-7479
▁पम्प	-7480
▁पारस	-7481
▁याली	-7482
▁लियो	-7483
▁व्यहो	-7484
▁सन्तुल	-7485
▁थपे	-7486
▁रुपा	-7487
▁शान्तिपूर्ण	-7488
अल	-7489
कन	-7490
▁हाँ	-7491
▁गुठी	-7492
▁स्को	-7493
▁देखियो	-7494
डेल्	-7495
▁तेज	-7496
▁खोजि	-7497
▁पुगे	-7498
▁हुला	-7499
▁ग्राहकको	-7500
▁पीडितलाई	-7501
▁परिमार्जन	-7502
लू	-7503
टिज	-7504
तस्	-7505
जाको	-7506
▁बिस्	-7507
▁अन्तरगत	-7508
▁निकायका	-7509
▁पुनःनिर्माण	-7510
▁व्यवसायीलाई	-7511
क्टो	-7512
▁याउन	-7513
▁जन्मा	-7514
▁खुल्ने	-7515
▁नायिका	-7516
▁परिमाण	-7517
▁उपसमिति	-7518
▁कारोबारमा	-7519
▁भक्तपुरको	-7520
▁कौ	-7521
न्द्वी	-7522
▁रिलिज	-7523
सुर	-7524
▁बिग	-7525
धारणा	-7526
▁परेकी	-7527
▁हरायो	-7528
▁कालिका	-7529
▁उपविजेता	-7530
▁उल्लेख्य	-7531
▁कालापानी	-7532
▁लाखभन्दा	-7533
ँु	-7534
साङ	-7535
मालले	-7536
▁पदबाट	-7537
▁टोलीमा	-7538
▁हेर्नु	-7539
▁देशभरका	-7540
▁ध्यानमा	-7541
▁मेलम्ची	-7542
चाह	-7543
▁पढ्न	-7544
▁बाली	-7545
▁अग्नि	-7546
▁जित्न	-7547
पुछ	-7548
म्भु	-7549
▁राख्	-7550
▁२०१५	-7551
▁नआएको	-7552
▁अन्दाजी	-7553
▁आफूहरुले	-7554
▁त्यहाँका	-7555
▁डेभलपमेन्ट	-7556
▁गर्नुपर्नेमा	-7557
शनि	-7558
ञ्जु	-7559
▁ग्रि	-7560
▁वेबसाइ	-7561
▁समाजले	-7562
▁प्रतिष्ठानका	-7563
▁कार्यान्वयनका	-7564
स्टिक	-7565
▁रूपै	-7566
▁आपसमा	-7567
▁आवासीय	-7568
▁चन्दले	-7569
▁जोगाउन	-7570
▁बाख्रा	-7571
▁सर्भिस	-7572
▁भूमिकामा	-7573
▁कार्ययोजना	-7574
▁महत्त्वपूर्ण	-7575
▁स्थानीयवासीले	-7576
किश	-7577
मैले	-7578
▁पेरि	-7579
▁बुबा	-7580
▁करोडको	-7581
▁गुल्मी	-7582
▁काठमाण्	-7583
▁बराबरीमा	-7584
▁रोजगारीमा	-7585
धक	-7586
जीको	-7587
▁अफि	-7588
▁सुदृ	-7589
गं	-7590
नुका	-7591
समध्ये	-7592
देख	-7593
र्पण	-7594
्याङ	-7595
रहेकी	-7596
▁बिगो	-7597
▁म्याच	-7598
▁उपसचिव	-7599
वरमा	-7600
▁सतह	-7601
▁उचाइ	-7602
्र्तगत	-7603
▁चीनका	-7604
▁गम्भिर	-7605
▁विस्फो	-7606
▁आवतजावत	-7607
▁विवादित	-7608
▁सम्बद्ध	-7609
▁आन्दोलनकारी	-7610
▁अनेरास्ववियु	-7611
▁प्रतिद्वन्द्वी	-7612
▁चाहना	-7613
▁समावेशी	-7614
▁परीक्षणमा	-7615
▁प्रतिनिधिसभाको	-7616
धबार	-7617
्यता	-7618
वस्तु	-7619
▁तिहा	-7620
▁पूरै	-7621
▁यूएई	-7622
▁लगभग	-7623
▁बिस्त	-7624
▁रहँदै	-7625
र्जस्ती	-7626
▁मानिएको	-7627
अर	-7628
लम्प	-7629
▁बढाएर	-7630
▁अनुरुप	-7631
▁खरिदमा	-7632
▁अन्यत्र	-7633
▁समाधानका	-7634
▁प्रधानमन्त्रीका	-7635
सीका	-7636
▁पुरि	-7637
प्रसार	-7638
▁घाईते	-7639
▁भवनको	-7640
▁नसकेका	-7641
▁लागेपछि	-7642
▁हुनुहुन्छ	-7643
माध	-7644
च्छु	-7645
▁नपु	-7646
▁राजव	-7647
▁कोषले	-7648
▁आरोपित	-7649
▁आश्वासन	-7650
▁कहिल्यै	-7651
▁समृद्धिको	-7652
nj	-7653
एनन्	-7654
कारण	-7655
ड्दै	-7656
ल्टी	-7657
कान्त	-7658
▁नगरे	-7659
▁सोहि	-7660
▁दोब्बर	-7661
▁भिडन्त	-7662
▁पेनाल्टी	-7663
▁चरा	-7664
ारीरिक	-7665
▁चर्चामा	-7666
▁गर्नुभयो	-7667
केही	-7668
युद्ध	-7669
▁विवादमा	-7670
▁कैलालीको	-7671
प्रे	-7672
▁नला	-7673
नियाँ	-7674
▁बङ्ग	-7675
▁बुटव	-7676
▁गोल्ड	-7677
▁कामलाई	-7678
▁गौशाला	-7679
▁बृद्धि	-7680
▁उपचारपछि	-7681
कुवा	-7682
शंकर	-7683
▁गतेबाट	-7684
▁सहयोगको	-7685
▁उपाध्याय	-7686
▁संखुवासभा	-7687
▁सोलुखुम्बु	-7688
१८	-7689
७२	-7690
भूमि	-7691
ङ्गले	-7692
▁जर्मनी	-7693
▁समाजमा	-7694
▁स्थलगत	-7695
▁टाउकोमा	-7696
धैं	-7697
र्मा	-7698
▁चिर	-7699
divide	-7700
▁दर्शक	-7701
▁अप्ठ्य	-7702
▁बस्तीमा	-7703
▁तातोपानी	-7704
▁मुख्यालय	-7705
आवासीय	-7706
▁शेर्पाले	-7707
▁व्यवसायिक	-7708
ड्ने	-7709
ण्डी	-7710
्रमा	-7711
▁विष्	-7712
▁गर्छु	-7713
▁बेहोस	-7714
▁युनिभ	-7715
ूरो	-7716
▁फरा	-7717
सक्दा	-7718
▁पीडा	-7719
▁पौडी	-7720
▁प्रमो	-7721
▁फार्म	-7722
▁बाक्लो	-7723
▁मूल्यांकन	-7724
▁काँकडभिट्टा	-7725
▁वान	-7726
शुक्र	-7727
▁वषर्	-7728
▁निवेद	-7729
▁स्याउ	-7730
▁महाप्र	-7731
▁शाखाको	-7732
▁बेवास्ता	-7733
प्स	-7734
zwnj	-7735
▁नबि	-7736
ग्रहण	-7737
▁पाठ्य	-7738
▁मद्दत	-7739
▁वीरगञ्ज	-7740
▁हत्यामा	-7741
▁पर्यटकको	-7742
▁एक्सचेन्ज	-7743
▁महोत्सवमा	-7744
उन्ट	-7745
▁तौल	-7746
▁सना	-7747
▁दिगो	-7748
▁बेइजिङ	-7749
▁सभासद्	-7750
▁कारागारमा	-7751
▁विराटनगरमा	-7752
मद	-7753
क्व	-7754
▁रोशन	-7755
▁सफाइ	-7756
▁आमाको	-7757
▁लाग्दै	-7758
▁सम्मको	-7759
▁योजनाको	-7760
▁टेलिकमले	-7761
राज्य	-7762
श्याम	-7763
▁लम्स	-7764
▁सेती	-7765
▁ज्याला	-7766
▁लेखेको	-7767
▁हजारको	-7768
▁लिनुपर्ने	-7769
▁बेलुकी	-7770
▁क्रियाशील	-7771
▁प्रतिष्ठानमा	-7772
▁पदका	-7773
▁खोटाङ	-7774
नमार्फत	-7775
वर्तमान	-7776
▁खुलासा	-7777
▁बरिष्ठ	-7778
▁मंगलवार	-7779
▁शारीरिक	-7780
र्सले	-7781
▁अन्यो	-7782
▁उल्लं	-7783
▁ओलम्प	-7784
▁सोमवार	-7785
▁सरस्वती	-7786
▁मोर्चाको	-7787
डिट	-7788
▁भुज	-7789
नासाथ	-7790
प्रदान	-7791
▁डडेल्	-7792
▁समयको	-7793
▁उपसभामुख	-7794
▁नाकाबन्दी	-7795
he	-7796
चेर	-7797
▁इम	-7798
▁आइएमई	-7799
▁अवधारणा	-7800
▁हप्	-7801
▁एनआई	-7802
▁सकेर	-7803
▁रावलले	-7804
▁काउन्सि	-7805
▁संस्कार	-7806
उनका	-7807
न्टी	-7808
मध्य	-7809
▁जनही	-7810
▁नेदर	-7811
▁हिमपा	-7812
▁सेवाका	-7813
▁नेकपाले	-7814
▁तट	-7815
▁थपि	-7816
ञ्चित	-7817
▁धनगढ	-7818
▁उठाउन	-7819
▁मध्या	-7820
▁त्रिशू	-7821
▁युवकको	-7822
▁दलहरुले	-7823
▁बिर्तामोड	-7824
▁अन्तर्गतको	-7825
दह	-7826
प्टे	-7827
संगै	-7828
तारमा	-7829
▁उनकै	-7830
सकिएको	-7831
▁सक्षम	-7832
▁एमसीसी	-7833
▁विरामी	-7834
▁इन्डोने	-7835
▁टीकापुर	-7836
▁उत्पादित	-7837
▁वायुसेवा	-7838
पास	-7839
▁औस	-7840
क्रि	-7841
न्धक	-7842
पारी	-7843
▁नाघ	-7844
बारीमा	-7845
▁च्यान	-7846
▁व्याज	-7847
▁कल्पना	-7848
▁पर्खाल	-7849
केर	-7850
काको	-7851
▁थिएँ	-7852
▁दुबई	-7853
घात	-7854
गमती	-7855
छोरी	-7856
याले	-7857
ङ्ग्र	-7858
सेनापति	-7859
▁विरोधी	-7860
▁पोखराको	-7861
▁संलग्नता	-7862
बाद	-7863
▁डर	-7864
गंगा	-7865
▁मनी	-7866
▁क्लि	-7867
▁नायक	-7868
▁छलफलका	-7869
▁निगमका	-7870
▁सोधपुछ	-7871
▁पुर्याउने	-7872
▁पूर्णरुपमा	-7873
गत्तै	-7874
▁छाला	-7875
▁थाले	-7876
▁संबिधान	-7877
▁हाराहारीमा	-7878
▁शीतल	-7879
▁गहिरो	-7880
▁भागेका	-7881
▁सन्तान	-7882
▁स्वार्थ	-7883
▁व्यवसायीको	-7884
▁चुक्तापूँजी	-7885
▁डब्	-7886
▁टाटा	-7887
▁पहिरोमा	-7888
▁विश्वको	-7889
▁निकाल्ने	-7890
▁समुदायका	-7891
▁आइसोलेसनमा	-7892
लेटि	-7893
▁मृग	-7894
▁दिवसका	-7895
▁प्रज्ञा	-7896
ad	-7897
बर्	-7898
याम	-7899
्रुअ	-7900
▁सेल	-7901
▁बिरोध	-7902
नावश्यक	-7903
▁गर्भवती	-7904
▁शुक्रबारदेखि	-7905
क्षे	-7906
स्रोत	-7907
▁भण्डारीको	-7908
लट	-7909
ियल	-7910
मेरो	-7911
▁लेन	-7912
दर्शन	-7913
▁अविर	-7914
▁गजुर	-7915
▁बसको	-7916
▁मातृ	-7917
▁आउँदो	-7918
▁सञ्जय	-7919
▁दुर्गम	-7920
▁हजारौं	-7921
▁उद्योगले	-7922
ाको	-7923
यनको	-7924
▁मुल	-7925
पहिलो	-7926
याएको	-7927
▁मनोर	-7928
▁देख्न	-7929
▁पक्षको	-7930
▁छठ	-7931
▁ठग	-7932
▁मङ्	-7933
▁मिना	-7934
▁जनवरी	-7935
▁दुर्व	-7936
▁खण्डको	-7937
▁प्यूठान	-7938
▁बोर्डका	-7939
▁रंगशालामा	-7940
▁गरिनुपर्ने	-7941
▁बासिन्दाले	-7942
▁अर्थतन्त्रमा	-7943
▁रक्षामन्त्री	-7944
चल	-7945
▁जनरल	-7946
तालिका	-7947
▁जुत्ता	-7948
▁शाखाले	-7949
▁एकजनाको	-7950
▁मिर्गौला	-7951
▁समेटिएको	-7952
ोषण	-7953
▁वी	-7954
दुर्	-7955
मानी	-7956
▁अन्स	-7957
▁हुन्थ्यो	-7958
▁आगलागीबाट	-7959
▁अनुसन्धानबाट	-7960
टिस	-7961
▁औषध	-7962
▁कृषक	-7963
▁चारै	-7964
नीतिमा	-7965
▁पार्क	-7966
मार्गको	-7967
▁गराइने	-7968
▁छुट्या	-7969
▁दायरामा	-7970
▁भविष्यमा	-7971
परी	-7972
लिटर	-7973
▁पवन	-7974
▁जसरी	-7975
▁दमकल	-7976
▁पुरै	-7977
▁शिला	-7978
ाउँछन्	-7979
▁भेगमा	-7980
▁पाँचौं	-7981
▁सचिवमा	-7982
▁बानेश्वर	-7983
▁बिरामीलाई	-7984
epal	-7985
न्टल	-7986
▁अल्प	-7987
▁खाडी	-7988
▁जन्मि	-7989
▁सङ्गठन	-7990
▁माल्दिभ	-7991
▁रोकिएका	-7992
▁माओवादीका	-7993
▁व्यवस्थापनमा	-7994
उनको	-7995
नुको	-7996
▁जानकी	-7997
▁भर्खर	-7998
▁पालिका	-7999
▁प्रसाई	-8000
▁स्वस्थ	-8001
▁सुनचाँदी	-8002
▁रामप्रसाद	-8003
माथिको	-8004
▁त्रास	-8005
▁पन्तले	-8006
▁स्थलमा	-8007
कप	-8008
पाठ	-8009
▁बू	-8010
▁रिस	-8011
▁प्रदू	-8012
▁तिवारी	-8013
▁राणाले	-8014
▁लागतमा	-8015
▁सारेको	-8016
▁बालकृष्ण	-8017
▁यात्रुलाई	-8018
टिएम	-8019
▁नबुझ	-8020
▁वक्त	-8021
▁बोल्न	-8022
▁भलिबल	-8023
▁रेस्ट	-8024
▁मेट्रिक	-8025
▁साताअघि	-8026
▁काउन्सिल	-8027
▁पार्टीलाई	-8028
▁निर्देशनमा	-8029
▁मानवअधिकार	-8030
ङ्कर	-8031
माधम	-8032
▁रजत	-8033
▁अर्ध	-8034
▁वारेन्ट	-8035
▁अनिश्चित	-8036
▁गृहकार्य	-8037
भावना	-8038
▁अपनाउन	-8039
▁हिस्सा	-8040
▁गर्नुको	-8041
▁क्षेत्री	-8042
▁दाहाललाई	-8043
र्छ	-8044
▁छनौट	-8045
▁बुवा	-8046
▁रावल	-8047
निर्भर	-8048
▁आसपासका	-8049
▁प्रत्या	-8050
▁रामेश्वर	-8051
▁गोरखापत्र	-8052
न्दू	-8053
फिल्	-8054
सक्छ	-8055
नेश्व	-8056
जनालाई	-8057
▁उकालो	-8058
▁बढीमा	-8059
सम्पर्क	-8060
▁देखाएर	-8061
▁राउतले	-8062
▁हालतमा	-8063
पीए	-8064
कुटी	-8065
▁ठोस	-8066
▁यकिन	-8067
नेप्से	-8068
▁अपांग	-8069
▁जान्छ	-8070
▁प्रती	-8071
▁वर्षाका	-8072
▁सहयोगका	-8073
पसार	-8074
राहा	-8075
▁दमौली	-8076
▁इनरुवा	-8077
▁कमजोरी	-8078
▁युवाको	-8079
▁रेडक्र	-8080
▁कर्जाको	-8081
▁सम्मेलनको	-8082
डोर	-8083
▁ऋणको	-8084
▁बहिष्कार	-8085
खे	-8086
सनले	-8087
किएपछि	-8088
▁धमाधम	-8089
▁उठाएको	-8090
▁विकसित	-8091
▁प्रालिले	-8092
▁मुद्दाको	-8093
▁रसुवागढी	-8094
र्ते	-8095
▁वकिल	-8096
▁नियोग	-8097
▁सम्बन्धि	-8098
फु	-8099
▁माद	-8100
▁हृदय	-8101
बुधबार	-8102
▁पाउँदा	-8103
▁विषयको	-8104
▁रिचार्ज	-8105
▁अप्ठ्यारो	-8106
ैँ	-8107
कता	-8108
▁छौ	-8109
▁झड	-8110
▁लिपु	-8111
▁तुलना	-8112
▁प्रभा	-8113
दायित्व	-8114
▁युवाले	-8115
शुक्रबार	-8116
▁भुसालले	-8117
▁प्रतिशतको	-8118
▁शर	-8119
▁डाय	-8120
बन्धक	-8121
ुलीले	-8122
▁चरेस	-8123
▁दिदै	-8124
▁एक्लै	-8125
▁एकताको	-8126
▁टेलिकम	-8127
▁समुदायले	-8128
▁देवेन्द्र	-8129
▁नवलपरासीको	-8130
▁संक्रमणबाट	-8131
▁मोट	-8132
कोटमा	-8133
डपर्व	-8134
भूकम्प	-8135
विनायक	-8136
▁शम्भु	-8137
▁गाविसको	-8138
▁अनावश्यक	-8139
▁निकायलाई	-8140
▁उपमे	-8141
▁सजिलै	-8142
▁भारतसँग	-8143
▁हत्याको	-8144
▁भूकम्पको	-8145
ag	-8146
जुर	-8147
त्यस	-8148
▁जोन	-8149
▁जलवा	-8150
▁बाला	-8151
आइतबार	-8152
▁खेलेका	-8153
▁ठाउँबाट	-8154
▁पारिवार	-8155
▁तामाङलाई	-8156
▁आन्दोलनरत	-8157
▁गैरआवासीय	-8158
md	-8159
यमाझ	-8160
▁रहि	-8161
▁नलाग	-8162
स्तरको	-8163
िकोत्सव	-8164
▁खुकुलो	-8165
▁निलम्बन	-8166
▁यतिबेला	-8167
▁सारिएको	-8168
▁विमानस्थलबाट	-8169
▁परासी	-8170
▁वुहान	-8171
▁सलमान	-8172
▁सोसाइ	-8173
▁चाहिने	-8174
▁पब्लिक	-8175
▁लिएपछि	-8176
▁फराकिलो	-8177
▁हराउँदै	-8178
▁जबर्जस्ती	-8179
रोग	-8180
▁मझ	-8181
उहाँ	-8182
ेलमा	-8183
▁इन्भे	-8184
▁मारेको	-8185
▁भाइरसबाट	-8186
▁तिर्नुपर्ने	-8187
भौ	-8188
काले	-8189
▁इङ्	-8190
▁ध्रु	-8191
▁मोडल	-8192
▁विदा	-8193
▁शरणा	-8194
स्थापन	-8195
▁साधनको	-8196
▁केसीलाई	-8197
▁किसानलाई	-8198
▁महामारीको	-8199
कामा	-8200
रहित	-8201
▁खसी	-8202
▁खाएर	-8203
ेपत्ता	-8204
▁महादेव	-8205
▁वित्ति	-8206
▁अफ्रिका	-8207
▁पराजुली	-8208
▁कार्यालयलाई	-8209
रथ	-8210
ज्व	-8211
▁नच	-8212
तारा	-8213
भावी	-8214
हिने	-8215
▁उनीमाथि	-8216
▁सांसदहरुले	-8217
▁०६	-8218
dquo	-8219
▁आचार	-8220
चेस्टर	-8221
म्बरमा	-8222
▁दिनभर	-8223
▁बुझाइ	-8224
▁सीमामा	-8225
▁’	-8226
ेनले	-8227
स्वरुप	-8228
▁चैत्र	-8229
▁बुँदा	-8230
▁जिज्ञा	-8231
▁रायमाझ	-8232
▁परिक्रमा	-8233
▁प्रयोगमा	-8234
▁भूकम्पले	-8235
▁उपत्यकाको	-8236
▁सोमबारदेखि	-8237
्रै	-8238
▁इँटा	-8239
▁एकको	-8240
▁किशो	-8241
▁उठेको	-8242
▁ब्रेक	-8243
▁निष्काश	-8244
▁उपरिक्षक	-8245
▁ओसारपसार	-8246
▁पोस्टमार्ट	-8247
ंगोल	-8248
▁भारु	-8249
▁सधैं	-8250
ेन्टमा	-8251
▁थियौं	-8252
▁देशले	-8253
मानसिंह	-8254
▁आएकाले	-8255
▁नेताको	-8256
प्रहरीले	-8257
▁किसिमका	-8258
▁आइसोलेसन	-8259
▁मुक्तिनाथ	-8260
▁इरा	-8261
▁चाड	-8262
▁राख्नु	-8263
▁सास्ती	-8264
▁कारखाना	-8265
राजा	-8266
▁पोज	-8267
▁अविरल	-8268
▁इटाली	-8269
▁उर्जा	-8270
▁पोखरी	-8271
▁सिलसि	-8272
▁तिर्ने	-8273
▁उपभोग्य	-8274
▁महिनापछि	-8275
▁दिल	-8276
▁हेक्टर	-8277
व्यवस्था	-8278
▁अन्सारी	-8279
▁सिं	-8280
▁क्रे	-8281
▁सुरज	-8282
▁पक्का	-8283
पुरस्थित	-8284
▁उपस्थितिमा	-8285
ग्न	-8286
▁ठीक	-8287
▁फाइल	-8288
▁रुपैं	-8289
▁स्वच्छ	-8290
▁घटनापछि	-8291
▁विभागीय	-8292
am	-8293
जुक	-8294
मेट	-8295
▁दौड	-8296
▁लिगमा	-8297
▁समापन	-8298
▁सम्मि	-8299
▁वक्तव्य	-8300
▁कार्कीलाई	-8301
▁पुर्पक्षका	-8302
▁प्रधानाध्यापक	-8303
खार	-8304
ैया	-8305
▁नह	-8306
्राइ	-8307
▁नुन	-8308
▁भेष	-8309
भागमा	-8310
▁भएकाे	-8311
भित्रको	-8312
▁ठाकुरले	-8313
▁पुग्नेछ	-8314
▁रूपैयाँ	-8315
▁लगायतले	-8316
▁कोरियाले	-8317
▁उपाध्यायले	-8318
▁विद्यालयले	-8319
रुङ	-8320
▁दिउ	-8321
▁कोसी	-8322
▁एभरेष्ट	-8323
▁निकालेर	-8324
नेट	-8325
सनिक	-8326
्युरि	-8327
▁क्लो	-8328
▁झोला	-8329
▁पेशा	-8330
नुभएका	-8331
▁सुन्त	-8332
▁पक्षलाई	-8333
▁त्यहाँबाट	-8334
00	-8335
याउन	-8336
▁पोख्र	-8337
▁आफैंले	-8338
▁सहमतिका	-8339
डब्	-8340
विश्व	-8341
▁आश्र	-8342
▁दशैं	-8343
▁नगरा	-8344
▁भरमा	-8345
▁युएई	-8346
▁रचना	-8347
▁वताए	-8348
मोर्चा	-8349
▁उल्लंघन	-8350
▁सम्पादन	-8351
▁अध्यागमन	-8352
▁प्रश्नको	-8353
गाड	-8354
ढाई	-8355
एमएस	-8356
पाले	-8357
▁जमि	-8358
▁कष्ट	-8359
▁नवनि	-8360
▁एजेन्ट	-8361
▁गर्छौं	-8362
▁देखाउन	-8363
▁नामावली	-8364
▁सदस्यहरु	-8365
▁हावाहुरी	-8366
▁कार्यतालिका	-8367
त्रु	-8368
▁एल्ब	-8369
▁कार्यलय	-8370
▁चाडपर्व	-8371
▁जसमध्ये	-8372
▁फर्किएको	-8373
▁उत्पादनको	-8374
▁अत्याधुनिक	-8375
फाई	-8376
चन्द	-8377
▁आइपु	-8378
▁बलिङ	-8379
▁बिहे	-8380
▁हाउस	-8381
ंगलबार	-8382
▁रेष्ट	-8383
▁रामवरण	-8384
▁कामदारलाई	-8385
फ्र	-8386
▁झार	-8387
▁पोजि	-8388
▁योगेश	-8389
▁तामाको	-8390
निर्वाचन	-8391
▁ल्याउँदै	-8392
▁कार्यकक्ष	-8393
▁प्रधानसेनापति	-8394
ाइँ	-8395
▁बाधा	-8396
पश्चात	-8397
▁गोल्डक	-8398
▁चौकीमा	-8399
▁हनुमान	-8400
▁मिश्रले	-8401
▁आइपुगेको	-8402
▁घरपरिवार	-8403
▁पारिवारिक	-8404
▁p	-8405
▁धो	-8406
▁ठेग	-8407
▁पोशा	-8408
▁निकासी	-8409
▁घनश्याम	-8410
▁जापानको	-8411
▁सेन्टरमा	-8412
▁देवकोटाले	-8413
▁पर्यटकलाई	-8414
मिना	-8415
▁अब्	-8416
▁भीर	-8417
किशोर	-8418
▁बसले	-8419
▁एटिएम	-8420
▁अनुमतिपत्र	-8421
पतको	-8422
लार्इ	-8423
▁कोरियाको	-8424
▁चौधरीलाई	-8425
▁पौडेललाई	-8426
▁समाचारमा	-8427
▁गृहमन्त्रालय	-8428
▁प्रतिस्पर्धी	-8429
▁रथ	-8430
▁१९८	-8431
▁बिहि	-8432
▁हमला	-8433
▁कसैको	-8434
▁प्रर्द	-8435
▁मड्रिड	-8436
▁अभियानका	-8437
▁खेलाडीको	-8438
▁निमन्त्र	-8439
▁आक्रमणबाट	-8440
दश	-8441
भाष	-8442
वली	-8443
ञ्चोक	-8444
▁चलाइ	-8445
▁जागिर	-8446
▁पठनपा	-8447
▁पाउनु	-8448
▁बत्ती	-8449
▁भाइरल	-8450
▁क्लबका	-8451
▁विश्वकै	-8452
▁रोगको	-8453
▁पोर्चु	-8454
▁स्तरीय	-8455
▁द्विपक्षीय	-8456
▁प्रतिष्ठानले	-8457
ारम	-8458
▁फेब	-8459
▁मकै	-8460
ाललाई	-8461
मुक्ति	-8462
▁डेंगु	-8463
▁विभेद	-8464
▁अवधिको	-8465
▁पुरानै	-8466
▁ओलम्पिक	-8467
▁जोडिएका	-8468
▁नेकपाको	-8469
▁शाक्यले	-8470
▁व्यवसायमा	-8471
▁अस्पतालबाट	-8472
न्दरी	-8473
▁जाडो	-8474
▁नरेश	-8475
इसकेको	-8476
▁रोहित	-8477
▁मात्रा	-8478
▁गुमाउने	-8479
▁मौसमविद्	-8480
▁गैरसरकारी	-8481
िसे	-8482
श्रो	-8483
▁भोक	-8484
ल्दार	-8485
विवाह	-8486
▁अपरि	-8487
▁बाग्	-8488
▁नामको	-8489
▁दक्षिणी	-8490
▁स्रोतको	-8491
▁अधिकारीका	-8492
कार्यक्रममा	-8493
▁दुर्व्यवहार	-8494
याे	-8495
वत्	-8496
ङ्कन	-8497
▁तालि	-8498
▁कुँवर	-8499
▁अभिलेख	-8500
▁खरेलले	-8501
▁छाड्ने	-8502
▁जुटाउन	-8503
▁दोषीलाई	-8504
▁ब्राण्ड	-8505
▁विश्वमा	-8506
▁सुधारका	-8507
▁कोरियामा	-8508
▁दार्चुला	-8509
▁दैनिकबाट	-8510
▁परिषद्को	-8511
▁प्रशासनिक	-8512
आमा	-8513
रोप	-8514
धनको	-8515
▁आफ्	-8516
▁खोल	-8517
▁बेर	-8518
▁थालि	-8519
▁आश्रम	-8520
▁खालका	-8521
▁सचेतक	-8522
▁सातौं	-8523
▁निधिले	-8524
▁नाराबाजी	-8525
▁भित्रिएको	-8526
▁केन्द्रबाट	-8527
▁श्रद्धाञ्ज	-8528
▁सर्वोच्चले	-8529
▁विश्वविद्यालयको	-8530
et	-8531
िता	-8532
▁सूच	-8533
च्छुक	-8534
▁ऐनको	-8535
▁राजि	-8536
▁रोक्	-8537
▁काट्न	-8538
▁छायांकन	-8539
▁ब्यवस्था	-8540
▁वृद्धिदर	-8541
▁पूर्वमन्त्री	-8542
णमा	-8543
निज	-8544
▁उक्	-8545
▁मणि	-8546
▁सकु	-8547
▁नापी	-8548
पक्राउ	-8549
▁ईलाका	-8550
▁सेन्ट	-8551
▁पर्दैन	-8552
▁सूचनाको	-8553
▁प्रक्षेप	-8554
▁रामकुमार	-8555
▁केन्द्रिय	-8556
▁त्रैमासमा	-8557
मस	-8558
▁गुठ	-8559
▁गोलको	-8560
▁बोहराले	-8561
▁हिँडेका	-8562
▁जनकपुरधाम	-8563
▁जोर	-8564
▁सोझ	-8565
▁हिड	-8566
ारीमा	-8567
▁कोषका	-8568
▁बाह्य	-8569
▁रोक्का	-8570
▁पुँजीगत	-8571
▁सम्पादक	-8572
▁जानुपर्ने	-8573
▁माओवादीको	-8574
▁सिंहदरबारमा	-8575
▁गई	-8576
▁टावर	-8577
▁सुकु	-8578
▁हत्य	-8579
▁हुदै	-8580
सोमबार	-8581
ुरेन्ट	-8582
▁जनायो	-8583
▁बिस्तार	-8584
▁कार्यसम्पाद	-8585
▁वार्षिकोत्सव	-8586
सकै	-8587
्याक	-8588
▁ओझा	-8589
▁छाउ	-8590
▁नमू	-8591
हुँदै	-8592
▁एसएल	-8593
▁गएकी	-8594
▁दियो	-8595
पार्टी	-8596
▁पर्दछ	-8597
नेपालको	-8598
▁कानूनी	-8599
▁भईरहेको	-8600
▁शीर्षकमा	-8601
▁बन्दाबन्द	-8602
▁अन्तरक्रिया	-8603
र्सा	-8604
▁दोहा	-8605
▁बच्न	-8606
▁रनमा	-8607
▁स्कोर	-8608
▁अप्रिल	-8609
▁एक्कासी	-8610
▁त्यसबाट	-8611
▁ठकु	-8612
▁मरि	-8613
▁१५०	-8614
मगरले	-8615
लायन्स	-8616
▁आजदेखि	-8617
▁बाजुरा	-8618
▁खड्काको	-8619
▁अत्याधिक	-8620
▁भक्तपुरका	-8621
▁अवस्थाबारे	-8622
▁पाउनुपर्ने	-8623
दलीय	-8624
▁महत	-8625
तीर्ण	-8626
▁विमल	-8627
प्रेषण	-8628
▁जुलाई	-8629
▁विदुर	-8630
▁काठमाडौः	-8631
▁बैंकहरुले	-8632
खि	-8633
नजिक	-8634
बजारी	-8635
योजित	-8636
ालिटी	-8637
▁ज्वा	-8638
कोरोना	-8639
▁आरोपी	-8640
▁नपाइने	-8641
▁मानिने	-8642
▁सिस्टम	-8643
▁पीडितको	-8644
▁प्रतिभा	-8645
▁उद्योगको	-8646
दिम	-8647
्रेजी	-8648
▁जिवि	-8649
▁नसके	-8650
तस्बिर	-8651
▁गर्यो	-8652
▁परिकार	-8653
▁गरेसँगै	-8654
▁उत्साहित	-8655
▁जनसम्पर्क	-8656
पल	-8657
घाती	-8658
▁फेरी	-8659
▁गरिँदै	-8660
▁भाषामा	-8661
▁ब्यक्ति	-8662
▁निर्णयमा	-8663
▁चिकित्सकको	-8664
एनए	-8665
लोमा	-8666
▁जथा	-8667
▁नम्	-8668
▁लिगको	-8669
▁खेलबाट	-8670
▁प्रस्ट	-8671
▁छात्रवृत्ति	-8672
ंस	-8673
टोल	-8674
▁अा	-8675
लोजी	-8676
नेपछि	-8677
सूचीमा	-8678
▁अक्टो	-8679
▁सेप्टे	-8680
▁थाइल्यान्ड	-8681
छौं	-8682
्रत	-8683
▁?’	-8684
▁गौर	-8685
च्छेद	-8686
▁एमबी	-8687
▁२०१४	-8688
&#39;,	-8689
▁हिमालय	-8690
▁उपचाररत	-8691
▁देखाउँदै	-8692
▁भित्रिने	-8693
▁सदस्यलाई	-8694
▁दृष्टिकोण	-8695
मसोम	-8696
▁इजा	-8697
▁नोभे	-8698
▁रोमा	-8699
परिषद्	-8700
▁फर्कन	-8701
▁स्थगन	-8702
▁हाजिर	-8703
▁कक्षमा	-8704
▁रजिष्ट्र	-8705
अघ	-8706
ठ्	-8707
७८	-8708
डले	-8709
फिया	-8710
▁एशो	-8711
▁नजा	-8712
▁उत्सव	-8713
▁बिहार	-8714
▁वार्ड	-8715
▁बन्दको	-8716
▁आकर्षित	-8717
▁बैठकपछि	-8718
आत	-8719
▁o	-8720
कियो	-8721
वेणी	-8722
▁ओपन	-8723
▁गुज	-8724
शनिबार	-8725
▁छेउमा	-8726
▁मियाँ	-8727
बिहीबार	-8728
▁उठाएका	-8729
▁ठाउँका	-8730
▁फुटबलको	-8731
▁क्यामेरा	-8732
▁प्रणालीको	-8733
लम	-8734
मधेस	-8735
लेखा	-8736
▁मेह	-8737
लाखेल	-8738
▁आठौं	-8739
▁कोशी	-8740
▁यज्ञ	-8741
▁ह्वा	-8742
▁फर्नि	-8743
▁अग्रवाल	-8744
▁महर्जनले	-8745
▁म्यानचेस्टर	-8746
चौकी	-8747
▁चलान	-8748
▁मच्च	-8749
▁केहीबेर	-8750
▁दलहरुबीच	-8751
▁गर्नुपरेको	-8752
पालन	-8753
▁वर्	-8754
▁सदा	-8755
ेन्सी	-8756
▁दुव्र	-8757
▁गर्नको	-8758
▁प्यारा	-8759
▁भनेपछि	-8760
्राचार्य	-8761
▁मर्यादा	-8762
▁प्रचारप्रसार	-8763
टाई	-8764
हको	-8765
ञ्जा	-8766
▁भरि	-8767
▁सरल	-8768
▁३००	-8769
▁क्यु	-8770
▁भइन्	-8771
▁सदुप	-8772
▁२०७१	-8773
▁छैटौं	-8774
▁देखिन	-8775
▁बिष्ट	-8776
▁वर्षिय	-8777
▁आइरहेका	-8778
▁भन्नेमा	-8779
▁परिषद्ले	-8780
▁घाइतेमध्ये	-8781
▁भूकम्पपीडित	-8782
▁छवि	-8783
▁घरधु	-8784
▁दिन्छ	-8785
▁सेटमा	-8786
▁कोहलपुर	-8787
▁सम्मिलित	-8788
▁निर्विरोध	-8789
▁परीक्षाको	-8790
▁प्रहारबाट	-8791
is	-8792
फेर	-8793
▁एड	-8794
वामा	-8795
▁रोड	-8796
▁नर्स	-8797
राखेको	-8798
▁झुण्ड	-8799
▁पासवान	-8800
▁चितवनका	-8801
▁विजयकुमार	-8802
७०	-8803
टिन	-8804
न्च	-8805
वर्ग	-8806
▁अस्व	-8807
▁चलखेल	-8808
▁बढेका	-8809
▁स्टोर	-8810
▁पोजेटिभ	-8811
▁उत्तीर्ण	-8812
▁गुरुङलाई	-8813
il	-8814
oo	-8815
निकी	-8816
▁ऋषि	-8817
▁तरुण	-8818
▁बोहो	-8819
▁भव्य	-8820
▁दललाई	-8821
▁लाखौं	-8822
▁रहेकोमा	-8823
▁सदुपयोग	-8824
▁कार्यलाई	-8825
▁प्रियंका	-8826
▁महाप्रबन्धक	-8827
▁उत्तरदायित्व	-8828
शै	-8829
घ्र	-8830
पेर	-8831
ात्	-8832
▁अट	-8833
▁गगन	-8834
▁खेतमा	-8835
▁समर्थक	-8836
▁मोटरसाई	-8837
▁क्षेत्रले	-8838
▁पराजुलीले	-8839
▁काठमाडौँमा	-8840
ंग्	-8841
तला	-8842
▁दुध	-8843
▁रघु	-8844
▁घाँस	-8845
▁धक्का	-8846
▁साहलाई	-8847
▁ट्यांकर	-8848
▁नेतालाई	-8849
▁प्रदूषण	-8850
▁नगरप्रमुख	-8851
▁सिलसिलामा	-8852
▁सुरक्षाकर्मीले	-8853
▁गोठ	-8854
▁तिर	-8855
▁शरद	-8856
▁घट्ने	-8857
▁शाहको	-8858
▁ब्याट्	-8859
▁अभियानको	-8860
▁त्रिशूली	-8861
▁प्रक्षेपण	-8862
▁कान्तिपुरसँग	-8863
अन	-8864
ारण	-8865
पाँच	-8866
फर्म	-8867
▁चोर	-8868
▁जीत	-8869
▁फेल	-8870
▁स्क	-8871
▁एयरको	-8872
▁पेरिस	-8873
▁फाउण्ड	-8874
▁विषादी	-8875
▁पं	-8876
जहाज	-8877
याली	-8878
▁चौर	-8879
▁ठिक	-8880
▁नहर	-8881
▁खड्ग	-8882
▁चार्ट	-8883
▁पढ्नु	-8884
▁शाखार	-8885
▁ढुङ्गा	-8886
▁नजिकको	-8887
▁बोल्ने	-8888
▁प्रशोधन	-8889
▁हत्यारा	-8890
▁बाँस्कोटा	-8891
▁नारायणकाजी	-8892
▁डिफ	-8893
▁सधै	-8894
ाएपछि	-8895
ेन्डर	-8896
▁बनेर	-8897
▁वेस्ट	-8898
▁सिंहको	-8899
▁साझेदार	-8900
▁मुलुकबाट	-8901
▁न्युयोर्क	-8902
▁सेवाग्राहीसँग	-8903
▁अन्तरराष्ट्रिय	-8904
सिन	-8905
▁हव	-8906
▁दशरथ	-8907
▁सीईओ	-8908
▁जलेको	-8909
▁डलरको	-8910
▁नगर्दा	-8911
▁स्वीका	-8912
▁पीडितले	-8913
मू	-8914
▁अथ	-8915
स्टा	-8916
वृद्ध	-8917
▁ट्रि	-8918
क्सिको	-8919
बजारमा	-8920
▁ग्रेड	-8921
भित्रका	-8922
▁मिलियन	-8923
▁मार्केट	-8924
▁सूचनाका	-8925
▁सुरक्षामा	-8926
▁मोटरसाइकललाई	-8927
टाइ	-8928
▁बन	-8929
त्तम	-8930
याधि	-8931
mdash	-8932
हीवार	-8933
▁बाहु	-8934
▁कलैया	-8935
▁भ्यान	-8936
▁कलेजका	-8937
▁काट्ने	-8938
▁थपलिया	-8939
▁बिरुवा	-8940
फाइनान्स	-8941
▁अवस्थित	-8942
▁आक्रोशित	-8943
▁डिसेम्बर	-8944
▁अनौपचारिक	-8945
▁मानबहादुर	-8946
▁क्वारेन्टि	-8947
इमा	-8948
प्या	-8949
▁टोक	-8950
▁दास	-8951
▁वाइ	-8952
▁शृंख	-8953
▁सामेल	-8954
▁हेल्थ	-8955
▁किन्ने	-8956
▁महानगरले	-8957
▁दीर्घकालीन	-8958
▁सम्बन्धलाई	-8959
▁बिहीबारदेखि	-8960
४५	-8961
पिङ	-8962
मतो	-8963
▁गुड	-8964
चालित	-8965
र्भिक	-8966
▁त्रु	-8967
▁द्रु	-8968
▁सफ्ट	-8969
▁क्याम	-8970
▁जेष्ठ	-8971
▁बतायो	-8972
▁पक्षका	-8973
▁जथाभावी	-8974
▁शाखारहित	-8975
▁समन्वयमा	-8976
▁रोजगारीको	-8977
सडक	-8978
डाले	-8979
▁इमा	-8980
▁कोण	-8981
नैतिक	-8982
▁अमृत	-8983
▁पार्व	-8984
▁लोडसे	-8985
▁सभाका	-8986
▁लेखनाथ	-8987
▁समाजको	-8988
जगढ	-8989
आएको	-8990
▁बहाव	-8991
▁हानी	-8992
▁उद्यम	-8993
▁कैलाश	-8994
▁हेटौँ	-8995
▁घटाउने	-8996
▁परेकाले	-8997
▁वेपत्ता	-8998
▁कार्यवाहक	-8999
इलो	-9000
भएको	-9001
▁नमूना	-9002
▁प्याक	-9003
▁गाउँले	-9004
▁ब्यूरो	-9005
▁कुँवरले	-9006
▁धादिङको	-9007
▁अधिकृतको	-9008
▁आप्रवासी	-9009
▁उपसभापति	-9010
▁गरिदिएको	-9011
जीमा	-9012
▁गयो	-9013
▁चिन	-9014
भारतीय	-9015
▁घुम्न	-9016
▁पल्टि	-9017
▁छोराको	-9018
▁बाटोमै	-9019
▁स्वर्ग	-9020
▁रक्तदान	-9021
▁हुनेगरी	-9022
▁अंग्रेजी	-9023
▁बारम्बार	-9024
▁बाहिरबाट	-9025
▁सेमिफाइनल	-9026
▁निमन्त्रणा	-9027
ंशी	-9028
▁मारि	-9029
▁वाइड	-9030
▁किताब	-9031
▁सट्टा	-9032
▁खरिददर	-9033
▁पुगेकी	-9034
▁ग्राहकहरुलाई	-9035
मह	-9036
कुरा	-9037
▁विर	-9038
म्यान	-9039
ेललाई	-9040
▁किमि	-9041
▁चाँडो	-9042
▁दिनमै	-9043
▁आयातमा	-9044
▁ट्रकमा	-9045
▁मध्यपुर	-9046
▁एक्सप्रेस	-9047
डीटी	-9048
राइज	-9049
▁एजे	-9050
▁जमा	-9051
▁फला	-9052
▁हड्	-9053
▁रिसो	-9054
▁सातै	-9055
▁काटेर	-9056
▁मनसुन	-9057
▁मङ्सिर	-9058
▁डुबानमा	-9059
▁आन्दोलित	-9060
▁दिनुपर्छ	-9061
▁सामग्रीको	-9062
▁एमाओवादीले	-9063
ँगा	-9064
ङ्गे	-9065
▁शार	-9066
▁औषधी	-9067
▁भएकै	-9068
विन्दु	-9069
▁द्रुत	-9070
▁सम्हा	-9071
मंगलबार	-9072
▁छोरीको	-9073
▁सातामा	-9074
▁फेब्रुअ	-9075
▁लिपुलेक	-9076
▁त्यसतर्फ	-9077
▁राष्ट्रको	-9078
▁मौन	-9079
▁वासि	-9080
बासीले	-9081
▁जनचेत	-9082
▁तहलाई	-9083
▁बगाएर	-9084
▁धेरैले	-9085
ड्यन्त्र	-9086
▁चुनावको	-9087
▁मस	-9088
जारा	-9089
▁औसत	-9090
▁भिम	-9091
▁स्तर	-9092
यसैगरी	-9093
▁जुटेको	-9094
▁मिलेको	-9095
र्वार्ता	-9096
▁पोजिटिभ	-9097
▁श्रीमान	-9098
▁क्षेत्रीले	-9099
▁3	-9100
तया	-9101
थोक	-9102
जनले	-9103
▁रेश	-9104
▁नेशनल	-9105
▁बस्तु	-9106
उनुपर्छ	-9107
▁चारवटा	-9108
▁कार्तिक	-9109
▁पश्चिमा	-9110
▁पुरुषको	-9111
▁ल्याउनु	-9112
▁प्रधानले	-9113
अगा	-9114
नेस	-9115
▁असुर	-9116
▁एन्फा	-9117
▁झडपमा	-9118
सङ्ख्या	-9119
▁छापिएको	-9120
▁बुधबारदेखि	-9121
ठू	-9122
पुरा	-9123
म्या	-9124
▁कुर	-9125
▁घले	-9126
▁निभ	-9127
▁बझाङ	-9128
▁बढाइ	-9129
▁विवा	-9130
आन्दोल	-9131
▁गोष्ठ	-9132
▁बन्यो	-9133
▁गराउनु	-9134
▁विभाजन	-9135
▁मुस्ताङ	-9136
▁युवतीलाई	-9137
▁राजनीतिमा	-9138
गै	-9139
कां	-9140
▁हद	-9141
▁पदम	-9142
▁रारा	-9143
▁असुली	-9144
▁भन्यो	-9145
▁रिटमा	-9146
▁पानीमा	-9147
▁प्रमोद	-9148
▁हेटौडा	-9149
▁नलाग्ने	-9150
२१	-9151
▁झनै	-9152
ङ्कले	-9153
▁डुंगा	-9154
▁असहमति	-9155
▁वर्षयता	-9156
▁रोजगारदाता	-9157
धनमा	-9158
बैंक	-9159
▁उचा	-9160
▁माई	-9161
▁वाई	-9162
रायसी	-9163
▁गाली	-9164
▁डिपो	-9165
▁सिधै	-9166
▁सेतो	-9167
▁हिना	-9168
्यान्ड	-9169
▁छोडेर	-9170
▁पक्की	-9171
▁महँगो	-9172
▁पाउँदै	-9173
▁बर्षको	-9174
▁समेटेर	-9175
▁खगेन्द्र	-9176
▁कीर्तिमान	-9177
वेयर	-9178
पुच्छ	-9179
▁वनमा	-9180
▁गार्ड	-9181
▁पाँचथ	-9182
▁साहको	-9183
▁जलवायु	-9184
▁ट्रकले	-9185
▁पुनराव	-9186
▁किसानको	-9187
▁नेम्वाङले	-9188
बीचमा	-9189
▁अत्त	-9190
▁गराउ	-9191
▁गहुँ	-9192
▁सुदृढ	-9193
▁मुलुकले	-9194
▁मानिसलाई	-9195
▁सद्भावना	-9196
▁षड्यन्त्र	-9197
▁कालीगण्डकी	-9198
▁परिस्थितिमा	-9199
▁डढ	-9200
ज्दा	-9201
मशेर	-9202
▁बरु	-9203
▁गोरु	-9204
▁चेपा	-9205
▁इजाजत	-9206
▁उडेको	-9207
▁अन्तरले	-9208
▁प्रमुखको	-9209
▁निवर्तमान	-9210
▁सञ्चालनको	-9211
▁काँग्रेसका	-9212
▁अन्तर्वार्ता	-9213
ोस्	-9214
नेता	-9215
पुरी	-9216
लम्बन	-9217
▁चिप्	-9218
▁भनिए	-9219
▁च्याउ	-9220
▁सङ्कट	-9221
▁सर्वसम्मत	-9222
▁सीमावर्ती	-9223
▁इन्डोनेसिया	-9224
दास	-9225
दरमा	-9226
मूल्य	-9227
▁आराम	-9228
▁मलंग	-9229
▁होली	-9230
▁कश्मी	-9231
▁दिउसो	-9232
▁मालिक	-9233
▁भर्खरै	-9234
▁ब्राजिल	-9235
▁फेसबुकमा	-9236
दिप	-9237
बेल	-9238
▁खर	-9239
▁वल	-9240
▁सदन	-9241
▁सरा	-9242
बुद्ध	-9243
▁कटान	-9244
▁पौने	-9245
सम्यान	-9246
▁औंल्या	-9247
▁रहेकोले	-9248
▁अत्यन्तै	-9249
▁अन्र्तगत	-9250
▁भित्र्या	-9251
▁मन्त्रीले	-9252
इको	-9253
चाप	-9254
हात	-9255
▁यि	-9256
सेवी	-9257
▁चुरे	-9258
▁फ्या	-9259
▁जगेडा	-9260
▁भित्रै	-9261
▁इन्डिया	-9262
▁बसिरहेका	-9263
▁चलचित्रमा	-9264
▁जितेन्द्र	-9265
सके	-9266
▁हौ	-9267
....	-9268
▁निश	-9269
▁सवा	-9270
सक्यो	-9271
संहिता	-9272
▁छक्का	-9273
▁भेटेर	-9274
डिरहेको	-9275
▁निक्षे	-9276
ालक्ष्मी	-9277
▁राज्यका	-9278
▁संगठनको	-9279
▁मिलाइएको	-9280
▁कालोपत्रे	-9281
▁कालोबजारी	-9282
▁व्यवस्थापनका	-9283
जू	-9284
किएर	-9285
न्याय	-9286
ेसनले	-9287
▁पुडा	-9288
▁फण्ड	-9289
▁माला	-9290
▁सीसी	-9291
▁बन्दर	-9292
▁आदेशमा	-9293
▁बागमती	-9294
▁सिमाना	-9295
▁आशंकामा	-9296
▁सेक्युरि	-9297
▁जनसङ्ख्या	-9298
▁संविधानले	-9299
▁अर्घाखाँची	-9300
भने	-9301
▁अडि	-9302
▁कटु	-9303
▁फौज	-9304
अन्तर	-9305
चोकमा	-9306
▁चौका	-9307
▁तुला	-9308
▁पन्थ	-9309
▁खलंगा	-9310
▁सक्नु	-9311
▁कठिनाइ	-9312
▁लालबाबु	-9313
▁मन्दिरको	-9314
अन्तर्गतको	-9315
▁उपभोक्ताले	-9316
थली	-9317
▁यात	-9318
▁आमरण	-9319
▁किमी	-9320
▁क्वि	-9321
▁गुरा	-9322
▁प्रय	-9323
▁भर्न	-9324
▁रनले	-9325
▁देखेर	-9326
▁प्रवि	-9327
▁बलात्	-9328
▁दोश्रो	-9329
▁समकक्ष	-9330
▁निशुल्क	-9331
▁विकेटले	-9332
▁कार्यदलले	-9333
▁आत्मनिर्भर	-9334
▁भट्टराईलाई	-9335
▁महोत्तरीको	-9336
▁इन्जिनियरिङ	-9337
चरण	-9338
तली	-9339
भर्	-9340
जीले	-9341
▁ओर्	-9342
▁डोजर	-9343
▁चार्ज	-9344
▁बनेपछि	-9345
▁भित्री	-9346
▁सम्ममा	-9347
▁छोराछोरी	-9348
णु	-9349
ter	-9350
डौँ	-9351
हाङ	-9352
ियु	-9353
करले	-9354
ाउँमा	-9355
▁असहज	-9356
▁डोटी	-9357
▁देशै	-9358
▁सर्ट	-9359
▁गर्मी	-9360
▁भगवती	-9361
▁सनाखत	-9362
मलेन्द्र	-9363
▁छोरीलाई	-9364
▁शुभारम्भ	-9365
▁व्यापारीले	-9366
▁शनिबारदेखि	-9367
▁प्रतिनिधिमण्ड	-9368
▁महानगरपालिकाका	-9369
२३	-9370
डीको	-9371
▁पवि	-9372
चेञ्ज	-9373
जग्गा	-9374
▁भगवान	-9375
▁हालको	-9376
कर्ताले	-9377
▁अबस्था	-9378
▁थापाका	-9379
▁काठमाडौँको	-9380
▁क्याम्पसमा	-9381
ेटर	-9382
पेक्ष	-9383
ष्टिक	-9384
▁दायरा	-9385
▁तुम्बा	-9386
▁नेपालकै	-9387
▁निष्पक्ष	-9388
▁मेक्सिको	-9389
▁श्रेष्ठका	-9390
▁आदानप्रदान	-9391
७१	-9392
▁क्ल	-9393
▁फाल	-9394
▁सोन	-9395
गोलिक	-9396
रक्षा	-9397
▁घरका	-9398
▁डेरा	-9399
क्यौता	-9400
▁बनायो	-9401
▁स्वकीय	-9402
▁वर्षाले	-9403
▁सर्वसाधारणले	-9404
मर	-9405
ब्रि	-9406
▁पद्	-9407
एसम्म	-9408
▁अनेक	-9409
▁कन्टेन	-9410
▁रामशरण	-9411
▁सङ्घका	-9412
▁आइसकेको	-9413
▁बोलपत्र	-9414
▁वाग्मती	-9415
▁स्थानका	-9416
▁बिन्दुमा	-9417
▁विज्ञप्ती	-9418
▁विद्यालयलाई	-9419
▁शत	-9420
▁युथ	-9421
▁असुल	-9422
▁कायमै	-9423
▁बहिनी	-9424
▁सुचना	-9425
▁पर्नेछ	-9426
▁बाराको	-9427
▁त्रैमास	-9428
▁भण्डारण	-9429
▁दिइरहेको	-9430
▁रुपैयाँले	-9431
बोट	-9432
यामा	-9433
्याव	-9434
▁वरि	-9435
▁इन्स	-9436
▁फोहर	-9437
▁राधा	-9438
▁लम्ब	-9439
▁श्रो	-9440
गाउँमा	-9441
▁घाँटी	-9442
▁रिजाल	-9443
▁शान्त	-9444
▁कान्ति	-9445
▁बजारका	-9446
▁त्यसअघि	-9447
▁आगलागीमा	-9448
▁इन्टरनेशनल	-9449
▁व्यक्तित्व	-9450
▁सञ्चारमाध्यम	-9451
▁पड्	-9452
▁हाे	-9453
▁अछाम	-9454
▁निया	-9455
▁रिफर	-9456
▁लाग्	-9457
▁टर्की	-9458
▁रोकेर	-9459
▁बाहिरी	-9460
▁क्रेडिट	-9461
▁खोजिएको	-9462
▁अवस्थाको	-9463
▁दुर्घटनाको	-9464
ha	-9465
निको	-9466
प्पल	-9467
▁किम	-9468
लागाई	-9469
▁शहरी	-9470
▁हुदा	-9471
म्पिया	-9472
▁हरियो	-9473
पोर्टमा	-9474
▁अपराधी	-9475
▁गुमाएर	-9476
▁त्रसित	-9477
▁वर्गका	-9478
▁कोटेश्वर	-9479
▁घाइतेलाई	-9480
▁भित्र्याउने	-9481
▁कार्यसम्पादन	-9482
घट	-9483
रम	-9484
ल्नु	-9485
▁उनि	-9486
▁डिल	-9487
▁थन्	-9488
▁पला	-9489
▁ललि	-9490
▁केवल	-9491
▁शुक्	-9492
▁ठेगाना	-9493
▁मौज्दा	-9494
▁नेटवर्थ	-9495
▁अध्ययनका	-9496
▁हाइड्रोपावर	-9497
बाँ	-9498
ानाथ	-9499
▁इञ्	-9500
▁आर्य	-9501
यात्री	-9502
▁तरलता	-9503
▁पृथ्व	-9504
▁फिदिम	-9505
▁बिज्ञ	-9506
▁घरायसी	-9507
▁चरित्र	-9508
▁प्रचलन	-9509
▁एकेडेमी	-9510
▁कर्जामा	-9511
▁हवल्दार	-9512
▁बङ्गलादेश	-9513
च्ची	-9514
▁जीव	-9515
▁बीउ	-9516
▁पञ्चा	-9517
▁बिशेष	-9518
▁नेताहरू	-9519
▁माछापुच्छ	-9520
▁माइक्रोफाइनान्स	-9521
फत	-9522
४०	-9523
सां	-9524
इन्ट	-9525
कुने	-9526
दीमा	-9527
बाबा	-9528
▁पिक	-9529
▁हलमा	-9530
▁प्रसंग	-9531
▁राउण्ड	-9532
▁बुझिएको	-9533
▁ल्याइने	-9534
▁तत्कालिन	-9535
▁अध्यक्षको	-9536
▁कञ्चनपुरको	-9537
▁मंगलबारदेखि	-9538
६०	-9539
टिक	-9540
बिन	-9541
दण्ड	-9542
र्सका	-9543
हतियार	-9544
▁त्याग	-9545
▁बिमान	-9546
▁मागेका	-9547
▁चितवनमा	-9548
▁प्रसिद्ध	-9549
▁बेलायतमा	-9550
▁मन्त्रीको	-9551
▁धौ	-9552
स्ट्	-9553
▁नाग	-9554
▁टिभी	-9555
▁शुरू	-9556
▁पात्र	-9557
▁बागलु	-9558
▁चन्द्रा	-9559
▁राज्यमा	-9560
▁सिरहाको	-9561
▁निष्काशन	-9562
▁महालक्ष्मी	-9563
▁अधिकारीहरूले	-9564
▁पद्ध	-9565
टिजन्स	-9566
र्तीले	-9567
त्यस्तै	-9568
▁त्यसरी	-9569
▁निकासा	-9570
▁लामाको	-9571
▁भक्तपुरमा	-9572
▁कोइरालालाई	-9573
▁राख्नुपर्ने	-9574
बाङ	-9575
▁अच	-9576
राना	-9577
▁कावा	-9578
▁अग्लो	-9579
▁थप्ने	-9580
▁सनराइज	-9581
▁जलस्रोत	-9582
▁गजेन्द्र	-9583
▁यात्रामा	-9584
▁शिलान्यास	-9585
▁मन्त्रिपरिषद्ले	-9586
▁सप्	-9587
▁क्लव	-9588
▁नराम	-9589
▁बृद्ध	-9590
▁युवतीको	-9591
▁विद्रोही	-9592
▁प्रतिशतमा	-9593
▁विश्वकपमा	-9594
▁व्यवस्थापक	-9595
▁क्षतिग्रस्त	-9596
बेच	-9597
बिहान	-9598
▁भुवन	-9599
▁मन्थ	-9600
▁मादक	-9601
▁घटाउन	-9602
▁छाडेको	-9603
▁चार्टर्ड	-9604
▁बन्दरगाह	-9605
▁सन्दीपले	-9606
▁पूर्वअध्यक्ष	-9607
el	-9608
कुट	-9609
िटल	-9610
शीला	-9611
ेजले	-9612
▁बहुम	-9613
▁पुलमा	-9614
▁खोजीमा	-9615
▁युरोपेली	-9616
▁सचिवालयमा	-9617
▁सन्धिखर्क	-9618
▁निष्कर्षमा	-9619
▁स्थानहरुमा	-9620
im	-9621
थन	-9622
मोर	-9623
एफपी	-9624
ानका	-9625
▁आलु	-9626
▁ल्हो	-9627
द्धारा	-9628
न्ध्या	-9629
▁खोलाले	-9630
▁पानीले	-9631
▁भौगोलिक	-9632
▁विरुद्धको	-9633
▁बलात्कारको	-9634
▁महानगरपालिकाको	-9635
▁इभ	-9636
डिखेल	-9637
▁कमर्स	-9638
▁परिसंघ	-9639
▁मैनाली	-9640
▁बाणिज्य	-9641
▁विवादका	-9642
▁सार्वभौ	-9643
▁मैनालीले	-9644
▁इलेक्ट्रो	-9645
▁न्यूयोर्क	-9646
▁गराउनुपर्ने	-9647
डल	-9648
वाले	-9649
्युब	-9650
▁the	-9651
▁दाइ	-9652
स्थिर	-9653
▁प्रब	-9654
▁सुति	-9655
▁आवागमन	-9656
▁गर्दछु	-9657
▁न्युजि	-9658
▁कानुनको	-9659
▁घर्तीले	-9660
▁बालकलाई	-9661
▁त्रिवेणी	-9662
▁बेलायतको	-9663
▁दूतावासका	-9664
▁कार्यान्वयनको	-9665
वले	-9666
▁जसका	-9667
▁धुलो	-9668
▁नबिल	-9669
जात्रा	-9670
▁दिंदै	-9671
▁बेचबि	-9672
▁सृजना	-9673
▁गएकाले	-9674
▁लुटपाट	-9675
▁सावधान	-9676
▁आफन्तको	-9677
▁कुरालाई	-9678
▁बाँकेका	-9679
▁नेताहरूले	-9680
▁प्रतिस्पर्धामा	-9681
बन	-9682
शत	-9683
ज्यू	-9684
र्दन	-9685
समूह	-9686
ation	-9687
क्ष्य	-9688
▁करार	-9689
▁शेखर	-9690
▁आदर्श	-9691
▁फिलिपि	-9692
▁घण्टामा	-9693
▁देखाएका	-9694
▁निमार्ण	-9695
▁अनुसारको	-9696
▁बाहिरिएको	-9697
▁पत्रकारलाई	-9698
एचओ	-9699
तेर	-9700
तिले	-9701
संसद	-9702
▁सञ्	-9703
दिएका	-9704
न्तिक	-9705
ानीको	-9706
▁औचित	-9707
▁गिरोह	-9708
मार्गमा	-9709
▁गरिदिन	-9710
▁बैठकबाट	-9711
▁हुनसक्छ	-9712
▁उद्योगलाई	-9713
▁सदरमुकाममा	-9714
▁दुव्र्यवहार	-9715
▁प्रदीपकुमार	-9716
▁विश्वविद्यालयले	-9717
िए	-9718
सीलाई	-9719
▁दाना	-9720
घटनामा	-9721
▁भर्ने	-9722
▁ल्याब	-9723
▁स्टेट	-9724
▁किर्ते	-9725
▁दुवैको	-9726
▁मौसममा	-9727
▁पक्षबाट	-9728
▁लामालाई	-9729
▁सेवाहरु	-9730
▁यातायातका	-9731
▁उपभोक्तालाई	-9732
रन	-9733
▁सव	-9734
बीले	-9735
▁यसो	-9736
▁डेटा	-9737
▁प्लस	-9738
▁बोले	-9739
▁सकिए	-9740
▁सानि	-9741
▁महीना	-9742
▁जीवनमा	-9743
▁बजारबाट	-9744
▁बहानामा	-9745
▁भारतलाई	-9746
▁विधिबाट	-9747
▁हस्पिटल	-9748
▁दिइरहेका	-9749
▁विपक्षमा	-9750
▁मन्त्रिपरिषदको	-9751
कुनै	-9752
नियम	-9753
मोचन	-9754
कारले	-9755
▁बिति	-9756
▁भ्रा	-9757
ानियाँ	-9758
▁हितमा	-9759
▁केसीका	-9760
▁गरेकाे	-9761
▁मागलाई	-9762
▁तत्कालका	-9763
▁धनबहादुर	-9764
▁मधेसवादी	-9765
नसरी	-9766
ारामा	-9767
▁इण्ड	-9768
▁चढेर	-9769
▁किरात	-9770
▁शारदा	-9771
▁चाहन्छु	-9772
▁प्रयासमा	-9773
▁नुवाकोटको	-9774
▁पाकिस्तानको	-9775
माई	-9776
न्नु	-9777
▁फुल	-9778
▁कोटा	-9779
▁खाजा	-9780
▁मिथि	-9781
▁मिसन	-9782
▁२०७०	-9783
▁सरिता	-9784
▁रमाइलो	-9785
▁लिम्पिया	-9786
▁प्रतिष्ठानको	-9787
–‘	-9788
पिड	-9789
पीएल	-9790
▁भैं	-9791
र्षिक	-9792
▁करको	-9793
बारेमा	-9794
लबन्दी	-9795
▁नेसनल	-9796
▁युनिट	-9797
▁ल्याई	-9798
▁स्वाय	-9799
▁डीआईजी	-9800
▁शेयरको	-9801
▁बक्यौता	-9802
निर्वाचित	-9803
▁बर्दिबास	-9804
▁अमेरिकाका	-9805
▁सङ्ख्यामा	-9806
▁सचिवालयका	-9807
▁गाँउपालिका	-9808
घाइ	-9809
रेनी	-9810
▁आव्	-9811
▁उजु	-9812
▁जाव	-9813
▁सोल	-9814
▁केरा	-9815
▁टहरा	-9816
▁धामी	-9817
▁स्वर	-9818
▁लगेका	-9819
▁स्थाय	-9820
▁सचेतना	-9821
▁गर्दछन्	-9822
▁देखाउने	-9823
▁भूभागमा	-9824
▁सिटिजन्स	-9825
▁गर्नुपर्नेछ	-9826
▁हुनुपर्नेमा	-9827
ेटी	-9828
▁यम	-9829
ङ्टन	-9830
ट्टि	-9831
▁नुह	-9832
▁कपुर	-9833
▁दरमा	-9834
शान्ति	-9835
▁निजगढ	-9836
▁तराईका	-9837
▁उत्तिकै	-9838
▁क्यानडा	-9839
▁सालदेखि	-9840
▁प्रतिलिटर	-9841
▁करा	-9842
▁बदर	-9843
▁लम्	-9844
▁हैन	-9845
ारीले	-9846
▁जनमत	-9847
पुरबाट	-9848
▁जोड्न	-9849
▁पृष्ठ	-9850
▁भाग्य	-9851
▁पोखरीमा	-9852
▁बिहिबार	-9853
▁पारदर्शी	-9854
▁बर्खास्त	-9855
▁मानिसहरु	-9856
हेल	-9857
िकन	-9858
▁भृ	-9859
साथै	-9860
▁लाम	-9861
▁तिरेर	-9862
▁नदेखि	-9863
▁हाफको	-9864
▁तोक्ने	-9865
▁गरिदिने	-9866
▁ट्रम्पको	-9867
▁राजिनामा	-9868
▁मलेसियामा	-9869
▁प्रवर्द्धन	-9870
▁सच	-9871
न्थे	-9872
▁जुध	-9873
▁धरा	-9874
लकण्ठ	-9875
▁लिभर	-9876
▁महिने	-9877
▁मिलाइ	-9878
मार्फत्	-9879
▁जुटेका	-9880
▁बेच्ने	-9881
▁चाँदीको	-9882
▁पठनपाठन	-9883
▁विद्यमान	-9884
▁हिनामिना	-9885
▁नेताहरुको	-9886
▁अधिकारकर्मी	-9887
▁प्रस्तावलाई	-9888
लोभ	-9889
▁नल	-9890
रलाई	-9891
▁अरे	-9892
▁गाड	-9893
▁नबढ	-9894
नगरमा	-9895
▁डाउन	-9896
▁दिपा	-9897
▁पाँचौ	-9898
▁रहस्य	-9899
▁वडाका	-9900
▁औचित्य	-9901
▁काफ्ले	-9902
▁लुकाएर	-9903
▁लैजाँदै	-9904
▁सुनुवार	-9905
▁उदयपुरको	-9906
▁देखिएकाले	-9907
ment	-9908
▁धरह	-9909
कुण्ड	-9910
▁भाषण	-9911
▁माझी	-9912
▁हिरो	-9913
खोलामा	-9914
▁उर्ला	-9915
▁चढेको	-9916
▁डंगोल	-9917
▁मरेको	-9918
▁बोकेका	-9919
▁भनिन्छ	-9920
▁दिल्लीमा	-9921
▁समुदायलाई	-9922
▁च्याम्पियनसि	-9923
▁प्रयोगशालामा	-9924
ँउ	-9925
▁c	-9926
▁र्फ	-9927
▁ऐनमा	-9928
▁बोलको	-9929
▁मस्जि	-9930
स्थानमा	-9931
▁कमाउने	-9932
▁किनबेच	-9933
▁चालकले	-9934
▁जानकार	-9935
▁साक्षा	-9936
▁स्तरमा	-9937
▁एनसेलले	-9938
▁अधिकारको	-9939
▁विजेताले	-9940
▁स्थितिमा	-9941
▁कारबाहीका	-9942
▁हिं	-9943
▁कर्फ	-9944
▁निरु	-9945
▁मजदु	-9946
▁एकपटक	-9947
▁दाङमा	-9948
▁पोस्ट्	-9949
▁सहचालक	-9950
▁साक्षर	-9951
ालगायतका	-9952
▁मेलमिला	-9953
▁सेनालाई	-9954
▁बाहिरिने	-9955
▁सप्तरीका	-9956
▁पत्रकारको	-9957
▁सूर्यविनायक	-9958
▁वो	-9959
ब्रा	-9960
हाल्	-9961
▁मर्	-9962
▁सल्	-9963
न्मुख	-9964
▁आँधी	-9965
▁जोडेर	-9966
▁तेलको	-9967
▁जवाफमा	-9968
▁दस्ताव	-9969
▁क्षतिको	-9970
▁माइतीघर	-9971
▁मुग्लिन	-9972
▁विकेटको	-9973
▁विशेषता	-9974
▁समकक्षी	-9975
▁डडेल्धुरा	-9976
▁जनाविरुद्ध	-9977
▁ग्	-9978
▁हम	-9979
क्सा	-9980
▁गिर	-9981
▁गीता	-9982
▁नगरि	-9983
▁नवौं	-9984
▁भैरव	-9985
▁ल्याए	-9986
▁चारजना	-9987
▁दूरीमा	-9988
▁मेसीले	-9989
▁रोकेको	-9990
▁हिन्दू	-9991
▁चलाइएको	-9992
▁मिलाउने	-9993
▁सुनसरीका	-9994
▁सोमबारको	-9995
ईई	-9996
वण	-9997
िएर	-9998
▁२०३	-9999
वासमा	-10000
▁इन्च	-10001
▁मिलि	-10002
▁छिमेक	-10003
▁अग्रसर	-10004
▁चौतारी	-10005
▁एजेण्डा	-10006
▁आइतबारको	-10007
▁देशव्यापी	-10008
▁भूकम्पबाट	-10009
▁महाशाखाको	-10010
न्डी	-10011
▁झिक	-10012
पुर्ण	-10013
संसद्	-10014
यसैबीच	-10015
▁पढ्ने	-10016
▁फोनमा	-10017
▁बाँदर	-10018
नेपालमा	-10019
▁चिन्ति	-10020
▁नीतिमा	-10021
▁संगठित	-10022
▁एकमात्र	-10023
▁निरिक्षक	-10024
▁विस्तारै	-10025
▁शिक्षाको	-10026
01	-10027
२४	-10028
जुट	-10029
सनीय	-10030
सेवक	-10031
▁सान	-10032
ित्दै	-10033
▁अम्ब	-10034
▁फारम	-10035
▁मुकेश	-10036
▁हानेर	-10037
▁कलेजले	-10038
▁ब्रोकर	-10039
▁प्रतिफल	-10040
▁कुटनीतिक	-10041
▁निकाल्दै	-10042
▁महोत्सवको	-10043
▁लघुवित्तको	-10044
▁स्थानीयलाई	-10045
▁साक्षात्कार	-10046
वृ	-10047
करि	-10048
पहा	-10049
लोड	-10050
अवधि	-10051
▁आलम	-10052
ारिलो	-10053
▁जोडे	-10054
▁लाठी	-10055
▁उस्तै	-10056
▁दिलाए	-10057
▁ध्रुव	-10058
▁हालेर	-10059
▁विधामा	-10060
▁बानियाँ	-10061
▁मानिसले	-10062
▁पोखरेलको	-10063
▁प्राप्ति	-10064
▁मृत्युको	-10065
▁स्थायित्व	-10066
▁ब्याट्सम्यान	-10067
वाङ	-10068
ण्टर	-10069
▁सत्	-10070
▁सेन	-10071
नियार	-10072
▁टीभी	-10073
▁तिमी	-10074
विरोधी	-10075
▁दाङको	-10076
▁स्पेन	-10077
▁गर्नेको	-10078
▁फुटबलमा	-10079
▁संगठनका	-10080
द्धान्तिक	-10081
▁शर्मालाई	-10082
▁युनिभर्सि	-10083
▁भण्डारीलाई	-10084
▁अनुसन्धानको	-10085
देन	-10086
लान	-10087
ट्री	-10088
यनमा	-10089
▁लत्ता	-10090
▁खर्चको	-10091
▁शैलीमा	-10092
▁हेरफेर	-10093
▁धेरैजसो	-10094
▁बोर्डमा	-10095
▁वित्तिय	-10096
▁वीरबहादुर	-10097
▁लगानीकर्ताको	-10098
गे	-10099
▁छर	-10100
पीएस	-10101
शनमा	-10102
▁टंक	-10103
▁स्टल	-10104
तामाथि	-10105
▁गस्ती	-10106
▁अवधिभर	-10107
▁बरालले	-10108
▁सार्ने	-10109
▁सुनिता	-10110
▁अवलम्बन	-10111
▁एजेन्डा	-10112
▁जनचेतना	-10113
▁इन्भेष्ट	-10114
▁स्तरोन्नति	-10115
▁व्यवस्थापनको	-10116
yen	-10117
ंगे	-10118
▁समि	-10119
▁कपाल	-10120
▁बिषय	-10121
▁लुगा	-10122
▁बन्धक	-10123
प्राप्त	-10124
▁एनआईसी	-10125
▁माथिको	-10126
▁मुखिया	-10127
▁क्लबलाई	-10128
▁अवस्थाका	-10129
▁दुईजनाको	-10130
▁व्यक्तिका	-10131
▁काठमाडौंले	-10132
▁थाइल्याण्ड	-10133
भरा	-10134
▁बोट	-10135
▁रुस	-10136
▁काटि	-10137
▁घट्ना	-10138
▁ड्राइ	-10139
▁सकुशल	-10140
▁अस्थिर	-10141
▁लाइनमा	-10142
▁बर्षीया	-10143
▁मातहतका	-10144
▁युवकलाई	-10145
▁सेवालाई	-10146
▁म्यानेजर	-10147
▁खानेपानीको	-10148
▁भित्र्याउन	-10149
२२	-10150
जिट	-10151
▁ईन्	-10152
▁चरम	-10153
▁दाल	-10154
▁यहि	-10155
सिरमा	-10156
▁खाँद	-10157
▁जङ्ग	-10158
न्ह्वा	-10159
▁आक्रा	-10160
▁रहन्छ	-10161
▁जनताका	-10162
▁टेक्नो	-10163
▁चिन्तित	-10164
▁प्रचलित	-10165
क्षेत्रीय	-10166
▁जनअधिकार	-10167
▁पण्डितले	-10168
▁बित्तिकै	-10169
▁बिहानदेखि	-10170
▁सम्झौताको	-10171
▁s	-10172
▁बड	-10173
जलाई	-10174
▁बढ्छ	-10175
▁राशि	-10176
▁लागे	-10177
न्द्रा	-10178
▁थालनी	-10179
▁बर्षा	-10180
▁मोक्त	-10181
▁लक्की	-10182
▁बजेबाट	-10183
▁पाकिस्तानले	-10184
▁सञ्चारमाध्यमले	-10185
बुटी	-10186
▁टुँ	-10187
▁राठ	-10188
▁अर्व	-10189
▁गरौं	-10190
▁गहना	-10191
▁बचाउ	-10192
▁बजेको	-10193
किस्तान	-10194
▁सदस्यता	-10195
▁निर्णयको	-10196
▁स्वायत्त	-10197
▁संस्थाबाट	-10198
श्मा	-10199
▁दिप	-10200
▁नभइ	-10201
▁मार्न	-10202
▁पुर्याएको	-10203
re	-10204
▁w	-10205
लाईन	-10206
▁भाई	-10207
क्रेट	-10208
▁तिलक	-10209
▁तेजा	-10210
▁चाइना	-10211
▁दशमलब	-10212
▁मगरको	-10213
▁मधेशी	-10214
▁मिलाएर	-10215
▁राउन्ड	-10216
▁स्थाना	-10217
▁रौनियार	-10218
▁दस्तावेज	-10219
▁दिइसकेको	-10220
साय	-10221
टाका	-10222
न्ना	-10223
▁बुढ	-10224
▁मिच	-10225
सेपछि	-10226
▁पक्र	-10227
ंगीतिक	-10228
▁कोलम्ब	-10229
▁पाठकले	-10230
▁मृगौला	-10231
▁अनुशासन	-10232
▁घुससहित	-10233
▁मर्जरमा	-10234
▁मिलेमतो	-10235
▁समूहलाई	-10236
▁स्थानको	-10237
▁हेटौँडा	-10238
▁भेटिएपछि	-10239
▁त्यसमध्ये	-10240
▁महाराजगञ्ज	-10241
▁पूर्वपश्चिम	-10242
▁सैद्धान्तिक	-10243
ड्दा	-10244
्र्ड	-10245
▁शता	-10246
▁बिघा	-10247
▁सवाल	-10248
▁सिड्	-10249
▁यसपाल	-10250
▁रुद्र	-10251
▁शुन्य	-10252
▁मन्तव्य	-10253
▁उद्धारका	-10254
▁नवनियुक्त	-10255
डोल	-10256
धिन	-10257
फले	-10258
साको	-10259
रीलाई	-10260
▁टेवा	-10261
▁पदको	-10262
▁हजुर	-10263
▁अखण्ड	-10264
▁जंगली	-10265
▁भरुवा	-10266
▁महन्थ	-10267
▁चाहन्छ	-10268
▁प्रलोभ	-10269
▁भनिएका	-10270
▁राम्रा	-10271
▁सानिमा	-10272
▁आयोगलाई	-10273
▁नेपालमै	-10274
▁पर्साका	-10275
▁बिक्रेता	-10276
▁बुझाइएको	-10277
▁समस्याका	-10278
▁ग्राहकहरुले	-10279
ुङ	-10280
ँगु	-10281
▁एसि	-10282
अर्का	-10283
▁फायर	-10284
▁एसएमएस	-10285
▁कतारमा	-10286
▁खोज्दै	-10287
▁हस्पिट	-10288
▁प्रयत्न	-10289
▁साधनलाई	-10290
▁उप्रेतीले	-10291
▁गच्छदारले	-10292
▁गठबन्धनले	-10293
▁विश्वकपको	-10294
▁प्रक्रियालाई	-10295
गमा	-10296
▁आशि	-10297
▁खेम	-10298
▁रूख	-10299
▁रोय	-10300
आफ्ना	-10301
न्जेल	-10302
▁ताली	-10303
▁स्नातक	-10304
▁सांगीतिक	-10305
▁कारवाहीको	-10306
▁राजधानीका	-10307
निका	-10308
▁नमि	-10309
▁पाठ	-10310
▁मीन	-10311
▁इंग्	-10312
▁छाना	-10313
▁दीपा	-10314
▁२०१२	-10315
▁फ्यान	-10316
प्ताहिक	-10317
▁मोदीको	-10318
▁समायोज	-10319
▁सार्की	-10320
▁तयारीका	-10321
▁रौतहटको	-10322
▁पाण्डेको	-10323
▁राष्ट्रका	-10324
▁हातहतियार	-10325
ंको	-10326
जाउ	-10327
▁सभ	-10328
त्रै	-10329
लिउड	-10330
▁चम्	-10331
▁झाँ	-10332
▁डिन	-10333
▁वकि	-10334
श्वरी	-10335
▁केयर	-10336
हरूबाट	-10337
▁जीर्ण	-10338
▁दिनयता	-10339
▁पकाउने	-10340
▁घटनालाई	-10341
▁मौज्दात	-10342
▁लगाएपछि	-10343
▁पूर्णिमा	-10344
▁छुट्याएको	-10345
▁ललितपुरका	-10346
▁कोरोनाभाइरस	-10347
▁लिम्पियाधुरा	-10348
पोट	-10349
मुलु	-10350
▁लोह	-10351
▁कम्ब	-10352
▁चुनि	-10353
विप्लव	-10354
▁मारमा	-10355
▁सकियो	-10356
▁छुटेका	-10357
▁झापामा	-10358
▁दिशामा	-10359
▁बढाएका	-10360
▁वामदेव	-10361
▁चौलागाई	-10362
▁भत्किएको	-10363
▁वार्ताको	-10364
▁राजदूतावास	-10365
▁मोटरसाइकलको	-10366
▁पोष्टमार्टमका	-10367
▁सञ्चारमन्त्री	-10368
िमी	-10369
म्मे	-10370
▁गुट	-10371
काभेट	-10372
▁दवाव	-10373
▁हमाल	-10374
▁अंकको	-10375
▁राजीव	-10376
▁सिनेमा	-10377
▁हेमन्त	-10378
▁महामारीका	-10379
▁उम्मेदवारको	-10380
पेड	-10381
सेक	-10382
रियल	-10383
ारका	-10384
▁उपर	-10385
▁विल	-10386
संघीय	-10387
▁बराल	-10388
▁समया	-10389
सुन्दर	-10390
वनमार्ग	-10391
▁कावासो	-10392
▁कमिटीको	-10393
▁पूर्णता	-10394
▁रुपैंया	-10395
▁सेवाबाट	-10396
▁बिक्रीदर	-10397
▁सिटौलाले	-10398
▁बिहीबारको	-10399
▁मोटरसाईकल	-10400
खाल	-10401
क्नु	-10402
▁अना	-10403
▁तर्	-10404
▁विच	-10405
▁थाल्	-10406
▁सुरू	-10407
▁इरानी	-10408
▁डम्बर	-10409
▁भुसाल	-10410
▁अपाङ्ग	-10411
▁घटाएको	-10412
▁छाडेका	-10413
▁तोलामा	-10414
▁बन्दका	-10415
▁यार्सा	-10416
केस	-10417
▁नफ	-10418
▁आना	-10419
▁रुट	-10420
▁पिता	-10421
▁भोग्	-10422
▁शिल्	-10423
▁२०१३	-10424
▁खोलेर	-10425
▁मर्का	-10426
▁एकैपटक	-10427
▁हातपात	-10428
▁बुटवलमा	-10429
▁बेल्जिय	-10430
▁रंगशाला	-10431
▁वैशाखमा	-10432
▁हत्याका	-10433
▁जावलाखेल	-10434
▁भानुभक्त	-10435
▁आफूहरुलाई	-10436
▁ललितपुरमा	-10437
क्खा	-10438
▁बढे	-10439
▁शाल	-10440
रियामा	-10441
▁जेलमा	-10442
▁गतवर्ष	-10443
▁बुझ्ने	-10444
▁विमोचन	-10445
▁सुशीला	-10446
▁महालेखा	-10447
▁हटाइएको	-10448
▁आक्रमणको	-10449
▁कोरोनाका	-10450
▁नेप्सेले	-10451
▁चन्द्रागि	-10452
▁बलात्कारपछि	-10453
▁प्रविधिमन्त्री	-10454
्ध	-10455
षेक	-10456
टनमा	-10457
ेलियन	-10458
▁पाहु	-10459
▁लिनु	-10460
सामयिक	-10461
▁तीब्र	-10462
▁औषधिको	-10463
▁थपिएका	-10464
▁वञ्चित	-10465
▁वृद्धा	-10466
▁वर्षमान	-10467
▁आफूहरुको	-10468
▁तेह्रथुम	-10469
▁त्यतिबेला	-10470
न्यु	-10471
▁ताज	-10472
वादको	-10473
▁आफनो	-10474
▁फिफा	-10475
▁वरपर	-10476
▁२०६८	-10477
स्तिका	-10478
▁अभावले	-10479
▁एसएलसी	-10480
▁दबाबमा	-10481
▁बढाइने	-10482
▁मोरङका	-10483
▁गुमाएको	-10484
▁बताइन्छ	-10485
▁अभियानलाई	-10486
▁अवस्थालाई	-10487
▁शुद्धीकरण	-10488
▁प्रस्तावको	-10489
▁रज	-10490
नीका	-10491
भाषा	-10492
▁संज	-10493
न्धित	-10494
▁तोला	-10495
▁माफी	-10496
▁मिनी	-10497
सभामुख	-10498
▁अण्डा	-10499
▁आफ्नी	-10500
▁घेराउ	-10501
▁दायाँ	-10502
▁बस्नु	-10503
प्रतिशत	-10504
▁आरडीटी	-10505
▁धारिलो	-10506
▁बनाइने	-10507
▁भुकम्प	-10508
▁हराएका	-10509
▁एकतर्फी	-10510
▁धरौटीमा	-10511
▁काठमाण्डौ	-10512
▁भूकम्पपछि	-10513
▁प्रदर्शनीमा	-10514
▁स्थानान्तरण	-10515
▁हौँ	-10516
▁पेसा	-10517
▁मागदा	-10518
▁यातना	-10519
▁सातदो	-10520
▁कलेजको	-10521
▁मुलुकी	-10522
▁चापागाई	-10523
▁धनगढीमा	-10524
▁निर्मित	-10525
▁टुँडिखेल	-10526
▁निम्त्या	-10527
▁रेलमार्ग	-10528
▁स्पष्टीकरण	-10529
▁रुपन्देहीको	-10530
▁गढ	-10531
▁थो	-10532
त्मा	-10533
बाली	-10534
▁अंश	-10535
राधिक	-10536
र्सको	-10537
▁मेसि	-10538
▁लमजु	-10539
▁हर्क	-10540
▁आरोही	-10541
▁खासगरी	-10542
▁बुहारी	-10543
▁संकटमा	-10544
▁इन्धनको	-10545
▁त्रिपुर	-10546
▁भोलिपल्ट	-10547
▁पुनरावेदन	-10548
▁सम्भाव्यता	-10549
▁सेक्युरिटी	-10550
नल	-10551
हिन	-10552
क्षि	-10553
पीआर	-10554
योजक	-10555
भाग्य	-10556
▁अल्ट	-10557
▁चेल्	-10558
▁झाडा	-10559
▁नविन	-10560
▁मर्च	-10561
▁पुग्छ	-10562
▁खर्चमा	-10563
▁बुढाले	-10564
▁तीव्रता	-10565
▁माथिबाट	-10566
▁रेडक्रस	-10567
▁जनकपुरमा	-10568
▁रामकृष्ण	-10569
▁प्रशासनको	-10570
▁साहित्यिक	-10571
▁चन्द्रबहादुर	-10572
ग्ध	-10573
डेट	-10574
लिप	-10575
न्वित	-10576
▁खाँदा	-10577
रहेकाले	-10578
▁करिडोर	-10579
▁च्यानल	-10580
▁धरानमा	-10581
▁दिलाएका	-10582
▁प्रेरणा	-10583
क्षेत्रमा	-10584
▁धावनमार्ग	-10585
▁मन्त्रालयबाट	-10586
▁राष्ट्रसंघीय	-10587
कपडा	-10588
पाका	-10589
सिनो	-10590
▁उडा	-10591
▁टिप	-10592
▁युट	-10593
विदेश	-10594
ानीमा	-10595
▁अभिय	-10596
▁घिसि	-10597
▁स्टो	-10598
▁छाड्न	-10599
▁नजाने	-10600
▁पोलिट	-10601
▁राजदु	-10602
▁जनतामा	-10603
▁भृकुटी	-10604
▁म्यारा	-10605
▁भीमदत्त	-10606
▁सेल्सिय	-10607
▁परिवारमा	-10608
▁वासिङ्टन	-10609
▁प्रतिवादी	-10610
▁भित्रिएका	-10611
▁साप्ताहिक	-10612
▁दर्जनभन्दा	-10613
▁पुनःस्थापना	-10614
▁प्रतियोगिताका	-10615
बाई	-10616
समी	-10617
▁मजबु	-10618
▁शासक	-10619
▁सकिन	-10620
▁साउथ	-10621
वारीले	-10622
▁खाएको	-10623
▁चलेका	-10624
▁तैनाथ	-10625
▁प्लेट	-10626
▁बढ्नु	-10627
▁देशबाट	-10628
▁देशबीच	-10629
▁परिचित	-10630
▁प्रायः	-10631
▁विकृति	-10632
▁हुनुका	-10633
▁गर्नेमा	-10634
▁दर्जनौं	-10635
▁गर्दैछन्	-10636
▁रविन्द्र	-10637
▁लोकमानसिंह	-10638
खी	-10639
हट	-10640
पुटी	-10641
▁सुगर	-10642
▁आईएमई	-10643
▁आस्था	-10644
▁बनाउनका	-10645
▁मिलाएको	-10646
▁काफ्लेले	-10647
▁बेरोजगार	-10648
▁किशोरीलाई	-10649
▁संग्रहालय	-10650
un	-10651
एउ	-10652
▁आङ	-10653
र्मी	-10654
र्मु	-10655
सर्व	-10656
▁जाम	-10657
▁थप्	-10658
भागका	-10659
वलम्ब	-10660
▁गल्फ	-10661
▁दलीय	-10662
▁शुल्	-10663
▁चैतमा	-10664
▁खुद्रा	-10665
▁माग्ने	-10666
▁परीक्षार्थी	-10667
▁पार्टीभित्र	-10668
नाउ	-10669
क्रे	-10670
ितीय	-10671
किङ्ग	-10672
▁दस्त	-10673
▁बोरा	-10674
▁तस्बि	-10675
विश्वास	-10676
▁आफूहरू	-10677
▁कसुरमा	-10678
▁नियामक	-10679
▁प्रताप	-10680
▁मिटरको	-10681
▁बानेश्व	-10682
▁लगानीका	-10683
▁वैद्यले	-10684
▁उपमहानगर	-10685
▁फिलिपिन्स	-10686
▁आचारसंहिता	-10687
घटन	-10688
जेट	-10689
जुमा	-10690
▁वाल	-10691
▁२०११	-10692
▁पटकको	-10693
▁शवलाई	-10694
▁मलंगवा	-10695
▁रानाले	-10696
▁सेनामा	-10697
▁कुनैपनि	-10698
▁पोखराका	-10699
▁नदेखिएको	-10700
▁बुधबारको	-10701
▁लोडसेडिङ	-10702
▁संरचनामा	-10703
▁टेकबहादुर	-10704
▁बाहिरिएका	-10705
▁सामान्यतया	-10706
२६	-10707
द्घ	-10708
▁ओटा	-10709
▁नचाह	-10710
▁२०६९	-10711
हरुबीच	-10712
▁गर्नै	-10713
▁गैँडा	-10714
▁संयोजन	-10715
▁धनुषाको	-10716
▁बस्नेतको	-10717
▁बाँडफाँड	-10718
▁मेलमिलाप	-10719
▁संवाददाता	-10720
▁कान्तिपुरलाई	-10721
▁प्रजातान्त्रिक	-10722
ot	-10723
खेर	-10724
दमै	-10725
धरण	-10726
बिसे	-10727
▁खर्	-10728
▁खिल	-10729
धनीले	-10730
्याली	-10731
▁असिना	-10732
▁उत्खन	-10733
▁दाउरा	-10734
▁पञ्जा	-10735
▁सुस्त	-10736
▁स्क्र	-10737
▁चक्रपथ	-10738
▁धेरैको	-10739
▁क्लिनिक	-10740
▁तस्बिरः	-10741
▁बजारलाई	-10742
▁सबभन्दा	-10743
▁अविश्वास	-10744
▁निकालेका	-10745
▁अनुपस्थित	-10746
▁कोषाध्यक्षमा	-10747
इट	-10748
मौ	-10749
ग्व	-10750
जीवी	-10751
र्धा	-10752
लाइट	-10753
सिटी	-10754
▁कदर	-10755
▁केर	-10756
अधिका	-10757
ाउन्ड	-10758
ोत्तम	-10759
▁बलको	-10760
▁भावी	-10761
▁इच्छुक	-10762
▁उहाँका	-10763
▁खोजेका	-10764
▁मधेसमा	-10765
▁बिहीवार	-10766
▁राजवंशी	-10767
मिल	-10768
▁एथ	-10769
बरमा	-10770
▁चल्	-10771
नीलाई	-10772
▁अथवा	-10773
▁अमित	-10774
▁घुमा	-10775
▁थिइन	-10776
▁बहरा	-10777
विद्या	-10778
▁अक्सि	-10779
▁अवस्थ	-10780
▁टिमको	-10781
▁कालीमा	-10782
▁फेस्टि	-10783
▁यथार्थ	-10784
▁उपन्यास	-10785
▁दाजुभाइ	-10786
▁नोक्सान	-10787
▁बहुमुखी	-10788
▁विधेयकको	-10789
▁समुदायमा	-10790
▁मंगलबारको	-10791
▁बज्राचार्य	-10792
▁वारेन्टाइनमा	-10793
ख्खा	-10794
भण्ड	-10795
▁ताम	-10796
स्केट	-10797
▁फाल्	-10798
▁भीषण	-10799
शिक्षा	-10800
▁आगोले	-10801
▁कर्मा	-10802
▁गजुरी	-10803
▁मुसहर	-10804
▁रसिया	-10805
▁शहरमा	-10806
तर्फबाट	-10807
▁आव्हान	-10808
▁गुम्बा	-10809
▁बजेटले	-10810
▁लगाउनु	-10811
▁लिलामी	-10812
▁सजायको	-10813
▁श्रीमतीको	-10814
▁कार्यकर्ताको	-10815
▁संविधानसभामा	-10816
▁राष्ट्रपतिलाई	-10817
षक	-10818
com	-10819
शले	-10820
जानु	-10821
टनको	-10822
प्रो	-10823
ललाई	-10824
स्टे	-10825
ाइमा	-10826
्वाइस	-10827
▁क्ला	-10828
▁भन्छ	-10829
▁२०६४	-10830
▁स्मार	-10831
▁अर्बको	-10832
▁असारमा	-10833
▁तोलाको	-10834
▁नाराका	-10835
▁प्याले	-10836
▁घरजग्गा	-10837
▁दिशाबाट	-10838
▁सन्तुलन	-10839
▁सूचनामा	-10840
▁छे	-10841
पाइँ	-10842
राली	-10843
किँदा	-10844
बिन्दु	-10845
▁छाएको	-10846
सकेकाले	-10847
▁न्युरो	-10848
▁हुम्ला	-10849
▁अंकसहित	-10850
▁उप्रेती	-10851
▁पूर्वराजा	-10852
▁स्मार्टफोन	-10853
▁नेदरल्यान्ड	-10854
भै	-10855
ईले	-10856
पसमा	-10857
म्फा	-10858
्ररी	-10859
▁आले	-10860
▁हटाएर	-10861
▁पुरिएर	-10862
▁फर्किन	-10863
▁बताउनु	-10864
▁भीरबाट	-10865
▁आपराधिक	-10866
▁भेटघाटमा	-10867
सिम	-10868
तीका	-10869
पाको	-10870
ष्मा	-10871
▁रेस	-10872
निगाह	-10873
र्वेद	-10874
▁परित	-10875
▁ढुङ्ग	-10876
▁नैतिक	-10877
▁पुनको	-10878
त्कृष्ट	-10879
▁ट्रस्ट	-10880
▁ध्वस्त	-10881
▁काउण्टर	-10882
▁गोरखाको	-10883
▁कन्स्ट्र	-10884
▁परिषद्का	-10885
▁ट्रयाक्टर	-10886
▁प्रतिकिलो	-10887
▁बार्सिलोनाले	-10888
त्स	-10889
लकड	-10890
०००	-10891
▁लख	-10892
ष्टी	-10893
्याट	-10894
गोपाल	-10895
▁पोसा	-10896
▁लिगा	-10897
वहादुर	-10898
▁खानले	-10899
▁टिमका	-10900
▁तिमल्	-10901
▁सदनमा	-10902
▁आईसीसी	-10903
▁शाहीको	-10904
▁बनाउँदा	-10905
▁अन्तरिक्ष	-10906
▁क्षेत्रफल	-10907
▁कार्यसमितिको	-10908
▁तौ	-10909
जेरि	-10910
न्जा	-10911
▁जर्	-10912
दार्थ	-10913
ेसनमा	-10914
▁ओमान	-10915
▁खातु	-10916
▁ख्याल	-10917
▁झन्डा	-10918
▁मझौला	-10919
▁उपमेयर	-10920
▁खुलाउन	-10921
▁संकलित	-10922
▁भद्रपुर	-10923
▁अन्त्यमा	-10924
▁उद्योगका	-10925
▁प्रान्तमा	-10926
▁रोनाल्डोले	-10927
दोष	-10928
▁उभ	-10929
ङ्दी	-10930
तेका	-10931
▁आति	-10932
▁बैक	-10933
महिला	-10934
मिरेट	-10935
▁डाँग	-10936
▁दिसा	-10937
▁बसका	-10938
▁भित्	-10939
अनुरुप	-10940
हरूबीच	-10941
▁ढिलाई	-10942
▁भेगका	-10943
▁विकले	-10944
▁तानसेन	-10945
▁त्रुटि	-10946
▁यससँगै	-10947
▁पुर्याउन	-10948
▁एक्सचेञ्ज	-10949
▁कारबाहीमा	-10950
▁उद्देश्यका	-10951
▁नियन्त्रणको	-10952
लीप	-10953
ढोका	-10954
लाग्	-10955
▁अख्	-10956
▁आपू	-10957
वाकोट	-10958
ियन्स	-10959
▁केभी	-10960
▁पशुप	-10961
▁शोभा	-10962
▁सांग	-10963
,&#39;	-10964
▁क्लबको	-10965
▁शिशुको	-10966
▁दुवैलाई	-10967
▁बोगटीले	-10968
▁रणनीतिक	-10969
▁अनुगमनमा	-10970
▁अवधिसम्म	-10971
▁यात्रुले	-10972
▁अस्पताललाई	-10973
▁आन्दोलनलाई	-10974
▁विमलेन्द्र	-10975
ध्व	-10976
▁डट	-10977
लिएर	-10978
▁ढाका	-10979
▁थारू	-10980
▁सुल्	-10981
▁आफैले	-10982
▁फैलिन	-10983
▁बद्री	-10984
▁रक्सी	-10985
▁प्रोजे	-10986
अख्तियार	-10987
▁मण्डलले	-10988
▁शाखाबाट	-10989
▁हिँडेको	-10990
▁शिक्षकको	-10991
▁भीमबहादुर	-10992
दिए	-10993
हीँ	-10994
▁वेद	-10995
▁साफ	-10996
कुन्द	-10997
▁अन्ध	-10998
र्तिमा	-10999
▁पाइलट	-11000
▁मेचीन	-11001
▁करदाता	-11002
▁जितेकी	-11003
▁टिमलाई	-11004
▁बास्को	-11005
▁समयपछि	-11006
▁स्वराज	-11007
▁आफूमाथि	-11008
▁कार्यको	-11009
▁फर्निचर	-11010
▁विमानमा	-11011
▁सावधानी	-11012
▁सेकेन्ड	-11013
▁इतिहासमा	-11014
▁सप्तरीमा	-11015
▁निर्णयलाई	-11016
▁विस्तारका	-11017
ुग	-11018
पनीय	-11019
▁अमा	-11020
▁जफत	-11021
▁उन्न	-11022
▁खोल्	-11023
▁राहु	-11024
▁सहजै	-11025
▁सिल्	-11026
▁हुवा	-11027
सञ्चार	-11028
▁धर्मा	-11029
▁प्लान्ट	-11030
▁विष्फोट	-11031
▁गर्नुपर्	-11032
▁हिंसात्मक	-11033
▁उपभोक्ताको	-11034
▁मैत्रीपूर्ण	-11035
▁रुपन्देहीका	-11036
ड्स	-11037
कीले	-11038
ठूला	-11039
यहाँ	-11040
ेजमा	-11041
▁गाभ	-11042
▁चर्	-11043
▁सोरु	-11044
▁नर्सि	-11045
▁मिल्दैन	-11046
▁स्नातको	-11047
▁बर्दिवास	-11048
▁निगरानीमा	-11049
▁मकवानपुरको	-11050
▁सर्वोच्चमा	-11051
▁प्रतिव्यक्ति	-11052
भाड	-11053
कीको	-11054
न्टि	-11055
र्डिङ	-11056
ियुगा	-11057
▁मिनि	-11058
▁गर्थे	-11059
▁मानेर	-11060
▁मुहान	-11061
ेलगत्तै	-11062
▁जलेश्वर	-11063
▁स्ट्राइ	-11064
▁सम्बन्धन	-11065
▁आयोजनालाई	-11066
▁पदाधिकारीले	-11067
▁कुश	-11068
फोनमा	-11069
▁पाएर	-11070
▁भाँच	-11071
▁झ्याल	-11072
अस्पताल	-11073
▁किटानी	-11074
▁कुलपति	-11075
▁ल्यापट	-11076
▁विगतका	-11077
▁हटाएको	-11078
▁प्रशारण	-11079
▁सिंहलाई	-11080
▁सुधारको	-11081
▁आतंकवादी	-11082
▁मनोरञ्जन	-11083
▁गन्तव्यमा	-11084
▁कार्यक्रमले	-11085
▁पदाधिकारीको	-11086
ियो	-11087
तपाई	-11088
वान्	-11089
▁अला	-11090
▁नपर	-11091
्र्या	-11092
▁अनलाइ	-11093
▁आफुले	-11094
▁नआउने	-11095
▁विराट	-11096
पछिल्लो	-11097
▁कुराको	-11098
▁जोडेको	-11099
▁ट्राभल	-11100
▁पर्वको	-11101
▁सक्नेछ	-11102
▁प्रशान्त	-11103
▁कार्यक्रमहरु	-11104
▁सट	-11105
लेमा	-11106
साना	-11107
▁सचि	-11108
सुदेव	-11109
▁चक्का	-11110
▁टुङ्ग	-11111
▁ब्याक	-11112
▁डेपुटी	-11113
▁न्यानो	-11114
▁बताउने	-11115
▁मन्थली	-11116
▁कँडेलले	-11117
▁प्लास्टिक	-11118
क्रान्तिकारी	-11119
▁प्रतिनिधिले	-11120
,”	-11121
जति	-11122
प्च	-11123
▁नट	-11124
्वास	-11125
▁४००	-11126
्वाइट	-11127
▁उतार	-11128
▁कडाई	-11129
▁बाजा	-11130
▁लीला	-11131
▁अंकमा	-11132
▁अंकित	-11133
▁सिमरा	-11134
▁चीनसँग	-11135
▁तीनवटै	-11136
▁सिजनमा	-11137
▁तिवारीले	-11138
▁सर्लाहीको	-11139
▁एयरलाइन्सको	-11140
▁अर्थतन्त्रको	-11141
ट्टे	-11142
रबाट	-11143
साता	-11144
▁आयक	-11145
▁बचा	-11146
▁शित	-11147
ट्रिक	-11148
▁क्लोज	-11149
▁मरेका	-11150
▁अभिषेक	-11151
▁पठाइने	-11152
▁हानेको	-11153
राजनीतिक	-11154
▁घरभित्र	-11155
▁परिक्षा	-11156
▁जन्मिएका	-11157
▁त्रियुगा	-11158
▁निर्जीवन	-11159
▁क्रिकेटमा	-11160
▁पुगिसकेको	-11161
▁यातायातको	-11162
माइ	-11163
दक्ष	-11164
पन्थ	-11165
▁एअर	-11166
▁एसएस	-11167
▁खडका	-11168
▁रुघा	-11169
▁लण्ड	-11170
▁अर्कै	-11171
▁आतङ्क	-11172
▁एकदमै	-11173
▁तपाईँ	-11174
▁ब्यान	-11175
▁मञ्जु	-11176
▁साइबर	-11177
डाँडामा	-11178
पश्चात्	-11179
▁इन्जिन	-11180
▁ट्वीटर	-11181
▁नामबाट	-11182
▁बिद्या	-11183
▁याइएको	-11184
▁रेक्टर	-11185
▁न्यायिक	-11186
▁स्ववियु	-11187
▁नेप्सेमा	-11188
▁स्थापनाको	-11189
▁पूर्वाञ्चल	-11190
▁सङ्क्रमणको	-11191
पौ	-11192
हवा	-11193
अर्थ	-11194
ेनन्	-11195
्र्य	-11196
▁छली	-11197
▁पिप	-11198
▁२५०	-11199
▁दण्ड	-11200
▁भियत	-11201
▁मेरा	-11202
▁गर्दे	-11203
▁नलिने	-11204
▁सन्तु	-11205
▁तालमेल	-11206
▁दिनहुँ	-11207
▁नियमाव	-11208
▁बोक्ने	-11209
▁अरेबिया	-11210
▁मानन्धर	-11211
▁सुन्दरी	-11212
▁अध्ययनले	-11213
▁शरणार्थी	-11214
▁कारोबारको	-11215
▁पशुपतिनाथ	-11216
▁समस्यालाई	-11217
▁माछापुच्छ्रे	-11218
कन्या	-11219
▁हुनै	-11220
ढुङ्गा	-11221
▁तारेख	-11222
▁भिन्न	-11223
क्षिप्त	-11224
▁इमिरेट	-11225
▁वर्षकी	-11226
तापूर्वक	-11227
▁बाँकेको	-11228
▁उद्धारमा	-11229
▁समितिबाट	-11230
▁सर्वदलीय	-11231
सेठ	-11232
▁फू	-11233
सीयू	-11234
▁लेक	-11235
क्यान	-11236
▁केबल	-11237
▁रङ्ग	-11238
▁उम्मे	-11239
▁बनेकी	-11240
▁सिरिज	-11241
▁टोकियो	-11242
▁योसँगै	-11243
▁गौतमलाई	-11244
याधिवक्ता	-11245
▁योगेन्द्र	-11246
▁नेताहरुलाई	-11247
▁कार्यपालिका	-11248
ay	-11249
८०	-11250
▁थे	-11251
करिब	-11252
▁जेट	-11253
्र्यो	-11254
▁चिना	-11255
▁भोला	-11256
▁लड्न	-11257
▁लमही	-11258
तर्फका	-11259
पूर्वी	-11260
अमेरिका	-11261
▁अभावका	-11262
▁मजदुरी	-11263
▁शेयरमा	-11264
▁स्तरको	-11265
▁उठाउँदै	-11266
▁गरिएपछि	-11267
▁त्रिपाठ	-11268
▁दुतावास	-11269
▁बताएपछि	-11270
▁टेलिकमको	-11271
▁पत्रकारि	-11272
▁प्रिमियम	-11273
▁शिक्षामा	-11274
▁ढुंगानाले	-11275
▁हरिबहादुर	-11276
▁महाराजगन्ज	-11277
▁पात	-11278
घाइते	-11279
▁टायर	-11280
▁जर्मन	-11281
▁बढीले	-11282
▁बेच्न	-11283
▁माग्न	-11284
▁सुनाइ	-11285
▁निम्तो	-11286
▁भागेको	-11287
▁छलफलपछि	-11288
▁प्रशस्त	-11289
▁सांसदको	-11290
▁सर्वसाधरण	-11291
▁अभियुक्तलाई	-11292
▁अर्थशास्त्र	-11293
▁विकासमन्त्री	-11294
बोल	-11295
समै	-11296
सिं	-11297
पर्छ	-11298
▁फेर	-11299
ञ्जित	-11300
▁अङ्क	-11301
▁गाभि	-11302
▁मोति	-11303
▁निर्म	-11304
▁पासाङ	-11305
▁प्रोड	-11306
▁यथावत	-11307
▁दिलाउन	-11308
▁न्यूरो	-11309
▁सम्झना	-11310
▁अन्त्ये	-11311
▁मिनेटको	-11312
▁स्पर्धा	-11313
▁एयरपोर्ट	-11314
▁निरौलाले	-11315
▁सिलिण्डर	-11316
▁हैसियतमा	-11317
▁प्रशासनमा	-11318
▁राम्रोसँग	-11319
▁हरिप्रसाद	-11320
▁सेप्टेम्बर	-11321
▁एयरलाइन्सले	-11322
▁विश्वविद्यालयमा	-11323
अफ	-11324
लाङ	-11325
म्पा	-11326
▁घाम	-11327
टिङमा	-11328
पहाडी	-11329
▁माने	-11330
▁अस्ति	-11331
▁होटेल	-11332
▁खरिदका	-11333
▁भएकामा	-11334
▁भेलामा	-11335
▁सरसफाई	-11336
▁अनुभूति	-11337
▁गोल्डकप	-11338
▁घण्टाको	-11339
▁शक्तिको	-11340
▁आत्मघाती	-11341
▁गर्नसक्ने	-11342
▁संविधानका	-11343
▁सडकखण्डको	-11344
▁नन्दबहादुर	-11345
कवि	-11346
▁झर	-11347
म्पो	-11348
▁खेर	-11349
▁चुर	-11350
म्पुर	-11351
िएपछि	-11352
▁टाँस	-11353
▁पुजा	-11354
▁फेवा	-11355
▁बाबा	-11356
▁मेमो	-11357
▁सुधा	-11358
▁सुनी	-11359
▁हर्ष	-11360
▁अनुपा	-11361
▁दाङका	-11362
▁लाभकर	-11363
▁शालिक	-11364
क्ष्यमा	-11365
▁आफूसँग	-11366
▁प्राइम	-11367
▁मिथिला	-11368
▁शाखामा	-11369
▁सम्मका	-11370
▁साधनमा	-11371
▁आमन्त्र	-11372
▁ग्यासको	-11373
▁म्यानेज	-11374
▁सकेसम्म	-11375
▁अनुगमनका	-11376
▁परित्याग	-11377
▁बेल्जियम	-11378
▁खेलिरहेको	-11379
▁गतिविधिमा	-11380
▁उनीविरुद्ध	-11381
▁नेपालगन्जमा	-11382
ंसी	-11383
केा	-11384
गजा	-11385
सेज	-11386
ड्नु	-11387
▁बबई	-11388
▁ग्यार	-11389
▁जमेको	-11390
▁भवानी	-11391
▁फोरमका	-11392
▁स्वरूप	-11393
बित्तिकै	-11394
▁इन्स्टि	-11395
▁दलहरुको	-11396
▁योग्यता	-11397
▁ओमप्रकाश	-11398
▁कामदारले	-11399
▁घिमिरेको	-11400
▁लापरबाही	-11401
▁परियोजनाको	-11402
ut	-11403
गढु	-11404
मिङ	-11405
▁कं	-11406
▁१२०	-11407
ज्यालो	-11408
▁आमाले	-11409
▁थियाे	-11410
▁तराईमा	-11411
▁वरिपरि	-11412
▁सुख्खा	-11413
▁दिदीबहि	-11414
▁पाँचवटा	-11415
▁फर्काउन	-11416
▁भुक्तान	-11417
▁मागदाबी	-11418
▁वेबसाइट	-11419
▁कर्पोरेट	-11420
▁प्रमुखमा	-11421
▁बसिरहेको	-11422
▁पुनरावलोकन	-11423
▁निर्णयअनुसार	-11424
▁विश्वकर्माले	-11425
▁काठमाडौंस्थित	-11426
ँसी	-11427
मना	-11428
वमा	-11429
▁ढल	-11430
▁असा	-11431
▁डरा	-11432
कारको	-11433
धिकृत	-11434
लिएका	-11435
▁आश्च	-11436
▁छाता	-11437
▁थुनि	-11438
▁बहाल	-11439
▁सिसा	-11440
▁गरिनु	-11441
▁निराश	-11442
▁बुकिङ	-11443
▁घुम्ती	-11444
▁खुवाउने	-11445
▁जापानमा	-11446
▁तीनकुने	-11447
▁पक्षबीच	-11448
▁कागजपत्र	-11449
▁जनाभन्दा	-11450
▁रातिदेखि	-11451
▁निष्क्रिय	-11452
▁बन्दाबन्दी	-11453
पै	-11454
ोला	-11455
चनले	-11456
▁जाय	-11457
▁डेब	-11458
▁तला	-11459
▁तले	-11460
काउने	-11461
▁अडियो	-11462
▁उठेका	-11463
▁जैविक	-11464
▁सुपरि	-11465
▁बैठकका	-11466
▁मितिमा	-11467
▁शिवराज	-11468
▁पाउँछन्	-11469
▁तुम्बाहा	-11470
▁परिमाणमा	-11471
▁करोडभन्दा	-11472
▁ट्रान्सफर	-11473
▁प्रकाशमान	-11474
▁विस्तारको	-11475
▁संरक्षणमा	-11476
▁सडकखण्डमा	-11477
▁व्यवस्थालाई	-11478
▁एलि	-11479
▁धम्	-11480
यस्तो	-11481
▁ग्वा	-11482
▁बन्छ	-11483
▁लिला	-11484
▁साल्	-11485
▁ओनसरी	-11486
▁खर्चि	-11487
▁ट्वीट	-11488
▁रकममा	-11489
संस्कार	-11490
▁इमान्द	-11491
▁प्रिन्	-11492
▁मनमोहन	-11493
▁गराउँदा	-11494
▁निस्कने	-11495
▁बाहेकका	-11496
▁समयसीमा	-11497
▁समाजसेवी	-11498
▁लाभान्वित	-11499
▁सदस्यहरुले	-11500
▁चन्द्रनिगाह	-11501
▁विद्यार्थीहरुले	-11502
ol	-11503
टेक	-11504
उडमा	-11505
च्यू	-11506
सागर	-11507
हुने	-11508
▁मेश	-11509
▁पैदा	-11510
▁संका	-11511
स्वरूप	-11512
▁चुस्त	-11513
▁जेठमा	-11514
▁पर्दै	-11515
▁विमला	-11516
▁एनएमबि	-11517
▁कान्छी	-11518
▁गौतमको	-11519
▁महासेठ	-11520
▁लैजानु	-11521
प्रवक्ता	-11522
▁नेम्वाङ	-11523
▁बढेकाले	-11524
▁बलात्कृत	-11525
▁सिलिन्डर	-11526
▁श्रीकृष्ण	-11527
▁पुरुषोत्तम	-11528
▁नवनिर्वाचित	-11529
▁महाधिवेशनमा	-11530
);	-11531
ालिङ	-11532
ेपला	-11533
▁टर्	-11534
▁ओपनर	-11535
▁धनमा	-11536
▁नंको	-11537
▁नबना	-11538
त्तीले	-11539
स्तीमा	-11540
▁एकजुट	-11541
▁एकाएक	-11542
▁कमिसन	-11543
▁बुझेर	-11544
▁ब्वाइ	-11545
ग्राहीले	-11546
▁गरेकामा	-11547
▁जुम्लामा	-11548
▁प्रालिका	-11549
▁मिडियाले	-11550
▁कालोसूचीमा	-11551
▁मृत्युदण्ड	-11552
खै	-11553
गान	-11554
रिज	-11555
सैन	-11556
▁तम	-11557
एनआर	-11558
संख्य	-11559
▁कमाइ	-11560
▁बाँस	-11561
▁सावि	-11562
▁हवाइ	-11563
▁कच्ची	-11564
▁ढुक्क	-11565
▁पोशाक	-11566
▁रेटिङ	-11567
▁स्वतः	-11568
▁गतिरोध	-11569
▁नीतिको	-11570
▁मतपत्र	-11571
अनुसारको	-11572
▁चाहिन्छ	-11573
▁धनुषाका	-11574
▁पहिरोको	-11575
▁मनाइएको	-11576
▁महरालाई	-11577
▁स्पेनिस	-11578
▁कैलालीका	-11579
▁गुप्ताले	-11580
▁राजनैतिक	-11581
▁लागेकाले	-11582
▁समसामयिक	-11583
▁सेल्सियस	-11584
▁किलोमिटरको	-11585
▁यात्रुबाहक	-11586
▁सर्वसाधारणका	-11587
दूत	-11588
पत्	-11589
फरक	-11590
एमसी	-11591
सरको	-11592
स्मा	-11593
हानी	-11594
▁गुम	-11595
▁दमन	-11596
वाटको	-11597
▁डडेल	-11598
▁तिला	-11599
▁तहबाट	-11600
▁प्रसू	-11601
▁बलराम	-11602
▁जन्मकै	-11603
▁हुलाकी	-11604
▁बढेसँगै	-11605
▁मार्फत्	-11606
▁रोकथामका	-11607
▁वातावरणीय	-11608
▁कार्यकालमा	-11609
शो	-11610
हत	-11611
६३	-11612
.00	-11613
▁टप	-11614
यसले	-11615
▁रनर	-11616
▁हँु	-11617
कल्या	-11618
पुस्त	-11619
▁कुशल	-11620
▁केटा	-11621
▁बक्स	-11622
▁वितर	-11623
दक्षिण	-11624
▁अभ्या	-11625
▁तालिब	-11626
▁नसकेर	-11627
▁ढङ्गले	-11628
▁रोगबाट	-11629
▁बैतडीको	-11630
▁बोलाएका	-11631
▁समयावधि	-11632
▁विश्वस्त	-11633
▁युवाहरुले	-11634
आयोग	-11635
दाको	-11636
▁ओसा	-11637
बस्था	-11638
▁वाचन	-11639
▁जीवित	-11640
▁बालेर	-11641
▁सेन्स	-11642
▁गाउँको	-11643
▁वल्र्ड	-11644
▁समुहले	-11645
▁अक्टोबर	-11646
▁मुखर्जी	-11647
▁घण्टापछि	-11648
▁बिजुलीको	-11649
▁महासमिति	-11650
▁ल्याउनुपर्ने	-11651
▁हेलिकप्टरबाट	-11652
षमा	-11653
▁धू	-11654
▁बृ	-11655
तारो	-11656
विरा	-11657
हाले	-11658
▁अबेर	-11659
▁खोलि	-11660
▁दलाल	-11661
▁राठौ	-11662
▁सिंग	-11663
▁आउजाउ	-11664
▁एल्बम	-11665
▁घटाएर	-11666
म्बन्धी	-11667
▁छुटेको	-11668
▁निर्मल	-11669
▁प्यानल	-11670
▁भक्तजन	-11671
▁मेचीनगर	-11672
▁सदस्यका	-11673
▁संशोधनका	-11674
▁कार्यसूची	-11675
▁बर्दियाका	-11676
इङ	-11677
गंज	-11678
ङ्ख	-11679
ञ्चा	-11680
श्रा	-11681
▁असल	-11682
अगाडि	-11683
केपछि	-11684
▁एम्प	-11685
टेन्सन	-11686
र्मीले	-11687
▁कलंकी	-11688
▁बैङ्क	-11689
▁उमेरका	-11690
▁ह्वाइट	-11691
▁तारिखमा	-11692
▁पूर्वका	-11693
▁पौडेलका	-11694
▁ल्यापटप	-11695
▁शास्त्र	-11696
▁आफन्तलाई	-11697
▁गर्नसमेत	-11698
▁जनमोर्चा	-11699
▁पासपोर्ट	-11700
▁काभ्रेपला	-11701
▁जिल्लालाई	-11702
▁लिमिटेडका	-11703
▁घाइतेहरुको	-11704
▁सुरुङमार्ग	-11705
▁च्याम्पियनसिप	-11706
हरे	-11707
जाले	-11708
ठारी	-11709
त्यो	-11710
ोषित	-11711
▁उपद	-11712
▁बटु	-11713
▁जम्म	-11714
▁झिका	-11715
पुर्जा	-11716
▁अश्रु	-11717
▁भनेकी	-11718
▁विकको	-11719
▁च्याले	-11720
▁ट्रयाक	-11721
▁बताउदै	-11722
▁हुनुको	-11723
स्थितिमा	-11724
▁खोलिएको	-11725
▁पार्वती	-11726
▁क्विन्टल	-11727
▁सांसदलाई	-11728
▁नियन्त्रक	-11729
▁नेपालस्थित	-11730
▁कांग्रेसलाई	-11731
▁स्नातकोत्तर	-11732
इस	-11733
टेन	-11734
र्ना	-11735
हेको	-11736
▁बढा	-11737
▁बोत	-11738
▁ब्ल	-11739
▁घोडा	-11740
▁टोखा	-11741
▁डरले	-11742
▁बिका	-11743
▁सिग्	-11744
▁उठाएर	-11745
▁कष्टकर	-11746
▁चलाएका	-11747
▁जोशीको	-11748
▁निरौला	-11749
▁मधेसको	-11750
▁मेलाको	-11751
ाउनुपर्छ	-11752
▁छोरालाई	-11753
▁नगरिएको	-11754
▁परिपत्र	-11755
▁आचार्यको	-11756
▁गुमाउँदै	-11757
▁पुस्तकमा	-11758
▁प्रर्दशन	-11759
▁पुरस्कारको	-11760
▁रिपोर्टर्स	-11761
▁बढाउनुपर्ने	-11762
रक	-11763
३५	-11764
▁कद	-11765
प्ला	-11766
मानव	-11767
लीलाई	-11768
▁सुरा	-11769
▁ओभरको	-11770
▁गरिमा	-11771
▁ललिता	-11772
▁खनालको	-11773
▁थाल्ने	-11774
▁भूमिगत	-11775
▁विनिमय	-11776
▁जनयुद्ध	-11777
▁बिस्फोट	-11778
▁सभामुखको	-11779
▁सिलवालले	-11780
▁असुरक्षित	-11781
▁संस्करणको	-11782
ँया	-11783
ओस्	-11784
▁मग	-11785
एफसी	-11786
▁लखन	-11787
देशीय	-11788
मुख्य	-11789
▁सुजन	-11790
▁पसेको	-11791
▁सङ्गठ	-11792
▁करोडौं	-11793
▁डुबेको	-11794
▁सोमपाल	-11795
▁पहिरोका	-11796
▁सिरहाका	-11797
▁देशबीचको	-11798
▁कम्पनीसँग	-11799
▁मलेसियाको	-11800
▁लगानीकर्तालाई	-11801
बले	-11802
लाख	-11803
षित	-11804
ितो	-11805
खेती	-11806
ज्वल	-11807
भरका	-11808
ैंचा	-11809
सकेकी	-11810
ुवाहक	-11811
▁ठाडो	-11812
▁दुरी	-11813
▁रक्स	-11814
▁तस्कर	-11815
▁दलबीच	-11816
▁बर्से	-11817
▁अनलाईन	-11818
▁क्वाटर	-11819
▁टुक्रा	-11820
▁टुङ्गो	-11821
▁आश्चर्य	-11822
▁एकाउन्ट	-11823
▁खेल्नेछ	-11824
▁तनहुँको	-11825
▁अभियन्ता	-11826
▁नोभेम्बर	-11827
▁परिरहेको	-11828
▁उपनिर्वाच	-11829
▁रुपान्तरण	-11830
ँद	-11831
सात	-11832
सिएको	-11833
ेसनको	-11834
▁मनसु	-11835
▁शर्त	-11836
▁२००७	-11837
▁फोरजी	-11838
▁भागेर	-11839
▁सबस्ट	-11840
▁अद्याव	-11841
▁अनुकूल	-11842
▁उदघाटन	-11843
▁क्लबमा	-11844
▁खोलेको	-11845
▁प्रेमी	-11846
▁सिनियर	-11847
▁जनार्दन	-11848
▁मंसिरमा	-11849
▁हात्तीको	-11850
मन्त्रिपरि	-11851
▁अध्यक्षले	-11852
▁फेब्रुअरी	-11853
▁रूपन्देही	-11854
▁विरुद्धमा	-11855
▁बढ्नुपर्ने	-11856
▁रजिष्ट्रार	-11857
२७	-11858
दिव	-11859
▁and	-11860
▁फैस	-11861
ब्रेक	-11862
सहमति	-11863
▁नदिई	-11864
▁कटारी	-11865
▁रुपले	-11866
▁खिलराज	-11867
▁चरिकोट	-11868
▁जमिनमा	-11869
▁स्टेसन	-11870
▁हमालले	-11871
▁कन्टेनर	-11872
▁कार्यका	-11873
▁फिल्मका	-11874
▁मजदुरको	-11875
▁कोरियाका	-11876
▁नाकाबन्द	-11877
▁नेपालीहरुको	-11878
▁तिन	-11879
▁भाट	-11880
▁हाई	-11881
र्टमा	-11882
▁ठुला	-11883
▁लाने	-11884
▁साटो	-11885
▁चिन्ह	-11886
▁न्युन	-11887
▁बस्दा	-11888
▁बीचको	-11889
▁याएका	-11890
▁सच्या	-11891
▁दुवैले	-11892
▁सभालाई	-11893
▁आफूहरूले	-11894
▁गजुरेलले	-11895
▁गतेभित्र	-11896
▁निस्केको	-11897
▁भारततर्फ	-11898
▁सातासम्म	-11899
▁शिक्षकलाई	-11900
▁विमानस्थलका	-11901
▁कन्स्ट्रक्सन	-11902
कति	-11903
दाह	-11904
भान	-11905
साँ	-11906
करणको	-11907
र्दिक	-11908
▁हाते	-11909
दास्पद	-11910
ौंदेखि	-11911
▁सरेको	-11912
▁टेलिभि	-11913
▁बाँधेर	-11914
▁वायुको	-11915
▁अध्यापन	-11916
▁गिरिराज	-11917
▁बोलाउने	-11918
▁मारिएको	-11919
▁समग्रमा	-11920
माओवादीका	-11921
▁तुरुन्तै	-11922
▁निर्णयले	-11923
▁प्रविधिमा	-11924
▁रुपैयाँका	-11925
▁समृद्धिका	-11926
▁परिवर्तनको	-11927
▁व्यक्तिहरु	-11928
▁स्थानीयबासी	-11929
▁तथ्यांकअनुसार	-11930
ङ्की	-11931
▁इको	-11932
▁दृढ	-11933
▁साई	-11934
वसायी	-11935
स्टेक	-11936
▁खुम्	-11937
▁ट्वा	-11938
▁प्यु	-11939
▁छैनौं	-11940
▁दिलीप	-11941
▁नहोस्	-11942
▁वासिङ	-11943
▁हरिहर	-11944
▁केन्दि	-11945
▁डिस्पो	-11946
▁नपरेको	-11947
▁नर्सिङ	-11948
▁बिक्रि	-11949
▁यन्त्र	-11950
▁अघिदेखि	-11951
▁अपहरणमा	-11952
▁उज्यालो	-11953
▁कतिपयले	-11954
▁धादिङका	-11955
▁चितुवाको	-11956
▁मूल्याङ्कन	-11957
▁यात्रुवाहक	-11958
▁अर्थतन्त्रलाई	-11959
एकै	-11960
हाय	-11961
▁इद	-11962
काएर	-11963
सियन	-11964
सेको	-11965
▁एडि	-11966
▁बैं	-11967
टाएका	-11968
▁हेर्	-11969
▁२००८	-11970
▁अनन्त	-11971
▁इजराय	-11972
▁दौडमा	-11973
▁विषयक	-11974
▁हुन्न	-11975
▁दसैंको	-11976
▁चितवनले	-11977
▁दशकदेखि	-11978
▁नदिएपछि	-11979
▁फिल्मले	-11980
▁बेचबिखन	-11981
▁वाइडबडी	-11982
▁नोक्सानी	-11983
▁म्यानमार	-11984
▁विस्फोटक	-11985
▁व्याख्या	-11986
▁पढ्नुहोस्	-11987
▁स्वरोजगार	-11988
▁निर्देशनालयले	-11989
▁शिक्षामन्त्री	-11990
▁स्थानीयवासीको	-11991
३२	-11992
ेलर	-11993
▁मित	-11994
ख्यात	-11995
▁दुला	-11996
▁पुगी	-11997
▁फ्लो	-11998
▁मुसल	-11999
▁चाँगु	-12000
▁नोबेल	-12001
▁बृहत्	-12002
ीनारायण	-12003
▁उनीसँग	-12004
▁निस्कन	-12005
▁माग्दै	-12006
▁राजकीय	-12007
▁शृंखला	-12008
▁उनीसँगै	-12009
▁नखुलेको	-12010
▁महिनाका	-12011
▁स्कुलमा	-12012
▁वार्ताका	-12013
▁सोहिअवधि	-12014
▁लत्ताकपडा	-12015
▁आक्रमणकारी	-12016
▁अर्जेन्टिना	-12017
घार	-12018
याका	-12019
▁बाम	-12020
▁तिनी	-12021
गाउँदा	-12022
बिक्री	-12023
▁उत्थान	-12024
▁छनोटमा	-12025
▁नआएपछि	-12026
▁भेटेका	-12027
▁सिटौला	-12028
▁गराएपछि	-12029
▁रत्ननगर	-12030
▁वितरणमा	-12031
▁विशेषगरी	-12032
▁साँझसम्म	-12033
▁अद्यावधिक	-12034
▁ठोक्किँदा	-12035
▁राजपत्रमा	-12036
▁वडाअध्यक्ष	-12037
नान	-12038
पिन	-12039
रिन	-12040
वात	-12041
सेर	-12042
कहाँ	-12043
डताल	-12044
बीमा	-12045
▁भंग	-12046
▁मुर	-12047
▁रेव	-12048
▁हेल	-12049
क्समा	-12050
नजिकै	-12051
प्राइ	-12052
ियाको	-12053
▁कट्ट	-12054
▁जेने	-12055
▁बल्ल	-12056
▁सङ्क	-12057
स्ट्रि	-12058
▁कास्य	-12059
▁धरहरा	-12060
▁पुतली	-12061
▁सक्दो	-12062
▁अन्योल	-12063
▁पन्तको	-12064
▁फ्रेन्	-12065
▁मनाइने	-12066
▁मिनाहा	-12067
▁होटलको	-12068
▁नपाएपछि	-12069
▁महिलामा	-12070
▁योजनाका	-12071
▁हिँड्ने	-12072
▁निवेदनमा	-12073
▁लोकमार्ग	-12074
▁इन्भेष्टमेन्ट	-12075
रिफ	-12076
मामा	-12077
योगा	-12078
▁एप्	-12079
▁सीत	-12080
▁घातक	-12081
▁भेटी	-12082
▁रिले	-12083
▁लाजि	-12084
▁स्वे	-12085
कात्मक	-12086
गाउँका	-12087
लाग्दो	-12088
▁खण्डन	-12089
▁गिरफ्	-12090
▁सार्न	-12091
आन्दोलन	-12092
▁बीमाको	-12093
▁भाषाको	-12094
▁रहेछन्	-12095
▁सप्तको	-12096
▁स्पोर्	-12097
▁क्षतिमा	-12098
▁घिसिङले	-12099
▁खाँदबारी	-12100
▁जिज्ञासा	-12101
▁लगातारको	-12102
▁समर्थनमा	-12103
▁गर्नुहोस्	-12104
▁माल्दिभ्स	-12105
▁इङ्ल्यान्ड	-12106
▁जिल्लास्थित	-12107
▁च्याम्पियन्स	-12108
▁साक्षात्कारमा	-12109
ंगिक	-12110
इएका	-12111
ट्ठा	-12112
ाउदै	-12113
िँदै	-12114
▁काज	-12115
▁चहल	-12116
▁ताइ	-12117
▁नक्स	-12118
निर्देश	-12119
▁ढकालको	-12120
▁पुरीले	-12121
▁प्रेसर	-12122
▁बाराका	-12123
▁एशियाली	-12124
▁पीडितका	-12125
▁सामानको	-12126
▁हार्दिक	-12127
▁यात्रुहरु	-12128
▁सत्तापक्ष	-12129
▁सम्झौतापत्रमा	-12130
ro	-12131
क्दै	-12132
द्री	-12133
न्दो	-12134
▁कुप	-12135
▁युग	-12136
▁वाङ	-12137
ldquo	-12138
सांसद	-12139
▁बृहत	-12140
▁हरिक	-12141
मृत्यु	-12142
▁विनाश	-12143
▁कृषिमा	-12144
▁गाउँमै	-12145
▁गौरवको	-12146
▁चल्नेछ	-12147
▁माविमा	-12148
▁तारेखमा	-12149
▁समूहबाट	-12150
▁भूकम्पका	-12151
▁सुकुम्बा	-12152
▁नेपालीहरु	-12153
▁कम्पनीहरुको	-12154
▁महाधिवेशनको	-12155
▁प्रयोगकर्ताले	-12156
पर्य	-12157
भरको	-12158
शीको	-12159
▁नया	-12160
▁एलपी	-12161
▁खुले	-12162
▁गाइड	-12163
▁गुम्	-12164
▁प्वा	-12165
▁फेसन	-12166
▁वापत	-12167
▁खेलका	-12168
▁मजबुत	-12169
▁अमेरिकन	-12170
▁कार्यभार	-12171
▁आम्दानीको	-12172
अन्य	-12173
कर्ण	-12174
▁बीर	-12175
▁बेड	-12176
▁लगन	-12177
▁लोभ	-12178
▁ह्य	-12179
पन्थी	-12180
मारको	-12181
रातमा	-12182
▁मेहन	-12183
▁रंगे	-12184
▁सयौँ	-12185
जिनियर	-12186
बैठकमा	-12187
र्थीको	-12188
▁किनेर	-12189
▁सार्थ	-12190
र्थीलाई	-12191
▁कतारको	-12192
▁चौकीका	-12193
▁नाघेको	-12194
▁परकम्प	-12195
▁पाहुना	-12196
▁राधिका	-12197
▁सुस्ता	-12198
▁रिसोर्ट	-12199
▁त्यसबेला	-12200
▁नरबहादुर	-12201
▁अध्यक्षका	-12202
▁गराइरहेका	-12203
▁बर्दियाको	-12204
▁लोकेन्द्र	-12205
▁कोरोनाभाइर	-12206
▁नारायणप्रसाद	-12207
पनमा	-12208
स्वी	-12209
▁रसि	-12210
▁ऐक्य	-12211
▁क्रो	-12212
▁तिनै	-12213
▁बाइक	-12214
योग्रा	-12215
▁टुक्र	-12216
▁भाँडा	-12217
ेन्टिले	-12218
▁ट्रकको	-12219
▁बढाउनु	-12220
▁भ्रातृ	-12221
▁सांसद्	-12222
▁अधिकारका	-12223
▁खड्कालाई	-12224
▁प्रतिकार	-12225
▁विन्दुमा	-12226
▁मुख्यसचिव	-12227
▁मेगावाटको	-12228
▁कार्यकर्ताहरुले	-12229
ch	-12230
ैना	-12231
टामा	-12232
▁टुट	-12233
▁पठा	-12234
▁बजा	-12235
▁सित	-12236
▁खेले	-12237
▁पालन	-12238
न्दर्य	-12239
▁अपमान	-12240
▁उपदफा	-12241
▁घट्दै	-12242
▁चेपाङ	-12243
▁डढेलो	-12244
▁तिब्र	-12245
▁सिकार	-12246
लक्ष्मी	-12247
▁उडानमा	-12248
▁जनाउने	-12249
▁मालवाहक	-12250
▁कन्ट्रोल	-12251
▁गाउँलेले	-12252
▁प्रवेशमा	-12253
▁विभागलाई	-12254
▁म्याड्रिड	-12255
▁पाकिस्तानमा	-12256
us	-12257
गौ	-12258
नीत	-12259
सरी	-12260
ेसो	-12261
खाला	-12262
नेपा	-12263
स्पे	-12264
▁पाम	-12265
▁पुल्	-12266
▁सोमा	-12267
दोस्रो	-12268
लकडाउन	-12269
ानुसार	-12270
▁अगस्ट	-12271
▁बल्खु	-12272
▁सिग्द	-12273
▁अन्यको	-12274
▁इन्स्टा	-12275
▁संस्थापन	-12276
▁पार्टीबाट	-12277
▁प्रमुखलाई	-12278
▁व्यवस्थाको	-12279
▁क्षेत्रफलमा	-12280
ri	-12281
फिङ	-12282
्रय	-12283
बीका	-12284
्राम	-12285
▁पाई	-12286
र्मुस	-12287
ेसनका	-12288
▁नाति	-12289
कासहित	-12290
त्रीको	-12291
भारतको	-12292
▁कुमाल	-12293
▁ट्रफी	-12294
▁मोबाई	-12295
▁विहार	-12296
▁सक्दै	-12297
▁जीवनको	-12298
▁यात्री	-12299
▁सघाउने	-12300
▁सहमतीय	-12301
▁पाइँदैन	-12302
▁बनाइएका	-12303
▁राजपाका	-12304
▁नेपालसँग	-12305
▁लक्ष्यका	-12306
▁लालबहादुर	-12307
▁संस्थाहरु	-12308
▁फ्रान्सेली	-12309
▁विवादास्पद	-12310
▁प्रतिबन्धित	-12311
▁मूल्यवृद्धि	-12312
ईन	-12313
२९	-12314
प्पु	-12315
ब्दी	-12316
ब्या	-12317
▁टाँ	-12318
▁पौड	-12319
▁सेभ	-12320
▁हल्	-12321
▁कपिल	-12322
▁कामु	-12323
▁खाका	-12324
▁पायो	-12325
▁सूचक	-12326
स्तरका	-12327
▁टोलमा	-12328
▁वक्ता	-12329
▁विघटन	-12330
▁काटेको	-12331
▁बजेपछि	-12332
▁बाँच्न	-12333
▁लगाइने	-12334
▁तर्जुमा	-12335
▁बनाएपछि	-12336
▁देखाइएको	-12337
▁प्रतिरोध	-12338
▁श्रमिकको	-12339
▁भइरहेकाले	-12340
▁म्यानपावर	-12341
▁शतप्रतिशत	-12342
▁हुँदाहुँदै	-12343
ra	-12344
▁m	-12345
ष्म	-12346
ाही	-12347
▁शस	-12348
पनको	-12349
पालो	-12350
▁गजल	-12351
परिषद	-12352
▁जाति	-12353
▁विषम	-12354
▁चल्दै	-12355
▁चाबहि	-12356
▁नल्या	-12357
▁टेन्डर	-12358
▁दीपिका	-12359
▁पैठारी	-12360
▁खटाइएको	-12361
▁उत्रिएको	-12362
▁निकायबाट	-12363
▁पल्टिएको	-12364
▁ल्याइएका	-12365
दुर्घटनामा	-12366
▁कोरोनाबाट	-12367
▁बितिसक्दा	-12368
▁अहिलेसम्मकै	-12369
▁कार्यालयहरु	-12370
▁पश्चिमाञ्चल	-12371
▁रेस्टुरेन्ट	-12372
▁विद्यार्थीहरु	-12373
ख्त	-12374
ब्ध	-12375
▁नक	-12376
ट्रा	-12377
डिटी	-12378
धेरै	-12379
प्रि	-12380
र्जि	-12381
सामु	-12382
▁आरु	-12383
▁इनि	-12384
▁घाउ	-12385
▁मिन	-12386
प्रका	-12387
ौलाको	-12388
▁एजुक	-12389
▁डेमो	-12390
▁मतले	-12391
▁सानु	-12392
▁मातहत	-12393
▁मोडेल	-12394
▁शिष्ट	-12395
प्रतिको	-12396
▁उदेश्य	-12397
▁गर्दैन	-12398
▁मञ्चका	-12399
▁गोदावरी	-12400
▁मुकुन्द	-12401
▁मुस्किल	-12402
▁ट्वान्टी	-12403
▁नागरिकका	-12404
▁मोबाइलमा	-12405
▁लम्सालले	-12406
▁सहकारीले	-12407
▁सौन्दर्य	-12408
▁चलचित्रको	-12409
▁ग्यारेन्टी	-12410
▁भृकुटीमण्ड	-12411
कृय	-12412
चास	-12413
टाङ	-12414
चेको	-12415
त्यु	-12416
पाठी	-12417
▁खरा	-12418
▁डटक	-12419
▁गोरख	-12420
▁जीबी	-12421
▁सुखी	-12422
कल्याण	-12423
मारीले	-12424
▁पठाएर	-12425
▁लेखेर	-12426
पत्रकार	-12427
▁प्रतिक	-12428
▁भरिएको	-12429
▁लाग्नु	-12430
▁बगाउँदा	-12431
▁बैंकर्स	-12432
▁बैंकसँग	-12433
▁मूल्यको	-12434
▁अधिग्रहण	-12435
▁शिक्षकले	-12436
सक्नुपर्ने	-12437
▁विषयवस्तु	-12438
▁संस्कृतिको	-12439
▁कार्यकक्षमा	-12440
▁काभ्रेपलाञ्चोक	-12441
बढ	-12442
आफू	-12443
तान	-12444
▁?'	-12445
ँदैछ	-12446
मबाट	-12447
मुलक	-12448
▁छिन	-12449
हेलना	-12450
ारीको	-12451
▁अष्ट	-12452
▁अस्त	-12453
▁दुरु	-12454
▁फन्ड	-12455
▁साउद	-12456
▁जनावर	-12457
▁तोकिए	-12458
▁बेस्ट	-12459
▁सञ्जी	-12460
ङ्ग्रेस	-12461
▁बनाउँछ	-12462
▁समयअघि	-12463
▁साइन्स	-12464
▁थापाथली	-12465
▁पाइएपछि	-12466
▁अत्तरिया	-12467
▁अनुपातमा	-12468
▁अन्तिममा	-12469
▁उनीहरुका	-12470
▁सांसदहरु	-12471
▁कञ्चनपुरका	-12472
▁धर्मावलम्ब	-12473
▁महोत्तरीका	-12474
▁प्रेमबहादुर	-12475
▁सेवाग्राहीलाई	-12476
तम्	-12477
बिच	-12478
बिट	-12479
डाका	-12480
लागी	-12481
ारूढ	-12482
▁पनौ	-12483
पहिले	-12484
प्टेन	-12485
▁देखी	-12486
▁बसाइ	-12487
▁रूपा	-12488
अनुरूप	-12489
▁क्यास	-12490
▁राकेश	-12491
▁रिमाल	-12492
▁व्यास	-12493
▁संग्र	-12494
त्यसैले	-12495
▁अरनिको	-12496
▁उपयोगी	-12497
▁नगरेका	-12498
▁नराम्रो	-12499
▁महिलाका	-12500
▁प्रभावका	-12501
▁दिपेन्द्र	-12502
▁सदस्यसचिव	-12503
▁उपलक्ष्यमा	-12504
▁शुक्रबारको	-12505
▁कर्मचारीहरु	-12506
▁श्रद्धाञ्जली	-12507
▁दुर्घटनाग्रस्त	-12508
पहल	-12509
बिस	-12510
ेरे	-12511
आइजी	-12512
▁मिड	-12513
▁रिप	-12514
▁सजग	-12515
च्छिक	-12516
▁अब्द	-12517
▁तिम्	-12518
▁पोषण	-12519
▁बाटै	-12520
नात्मक	-12521
सियाली	-12522
▁इस्ला	-12523
▁लेखाप	-12524
त्साहित	-12525
▁कोरियन	-12526
▁चेम्बर	-12527
▁ब्राउन	-12528
▁लाइनको	-12529
▁खत्रीको	-12530
▁नक्सामा	-12531
▁संभावना	-12532
▁अभिभावकले	-12533
▁गठबन्धनको	-12534
▁कम्पनीहरुले	-12535
▁त्रिपुरेश्वर	-12536
js	-12537
ँचा	-12538
रिस	-12539
हले	-12540
▁अं	-12541
जिकल	-12542
बीएस	-12543
ुभाव	-12544
त्रिम	-12545
▁एसईई	-12546
थोकीले	-12547
वाकोटी	-12548
▁जागरण	-12549
▁श्वास	-12550
▁स्तम्भ	-12551
▁स्मारक	-12552
▁अबरुद्ध	-12553
▁क्रिस्ट	-12554
▁शाहीलाई	-12555
▁सच्याउन	-12556
▁सगरमाथाको	-12557
▁प्रतिष्ठित	-12558
पर्दो	-12559
सुधार	-12560
▁एकसय	-12561
▁तिर्	-12562
▁नाता	-12563
▁प्रम	-12564
▁वैठक	-12565
▁२०६३	-12566
▁आरम्भ	-12567
▁झाडाप	-12568
▁प्याज	-12569
पत्रिका	-12570
फाइनलमा	-12571
▁एम्पुल	-12572
▁गर्नुप	-12573
▁बोलेका	-12574
▁संज्ञा	-12575
▁उत्रेका	-12576
▁गोल्डेन	-12577
▁प्रेरित	-12578
▁महान्या	-12579
▁मिनेटमै	-12580
▁संस्कृत	-12581
▁प्रतिकूल	-12582
▁सहभागीले	-12583
▁नेतृत्वले	-12584
गाढ	-12585
नायक	-12586
न्टन	-12587
रायल	-12588
▁चक्	-12589
अघिका	-12590
विज्ञ	-12591
▁अटेर	-12592
▁जिते	-12593
▁थप्न	-12594
▁बस्य	-12595
▁वाटर	-12596
▁सोच्	-12597
▁२०१०	-12598
▁नगरको	-12599
▁बिदाइ	-12600
▁बैद्य	-12601
▁उचाइमा	-12602
▁गाईघाट	-12603
▁नपाएका	-12604
▁पुडासै	-12605
▁वषर्ीय	-12606
▁सङ्घले	-12607
▁सिलवाल	-12608
▁हैसियत	-12609
त्यसैगरी	-12610
▁जितसँगै	-12611
▁फौजदारी	-12612
▁हुनुअघि	-12613
▁देउवालाई	-12614
▁पाइपलाइन	-12615
▁भेन्टिले	-12616
▁माल्दिभ्	-12617
ul	-12618
let	-12619
पाती	-12620
▁खाइ	-12621
▁निज	-12622
▁हान	-12623
रक्षक	-12624
शमशेर	-12625
▁आशिष	-12626
▁मौला	-12627
▁सोको	-12628
िकर्ता	-12629
▁अर्पण	-12630
▁केरुङ	-12631
▁भुजेल	-12632
▁गोपनीय	-12633
▁तिब्बत	-12634
▁रामपुर	-12635
▁हड्ताल	-12636
▁सोसाइटी	-12637
▁प्रभावले	-12638
▁विप्रेषण	-12639
▁चाँगुनारायण	-12640
▁म्यानेजमेन्ट	-12641
णविक	-12642
सबाट	-12643
सेन्	-12644
▁थरु	-12645
वेदना	-12646
▁अपुग	-12647
▁एयरव	-12648
▁जिता	-12649
▁मेसी	-12650
▁मोती	-12651
▁रहित	-12652
▁शैली	-12653
▁समित	-12654
नागरिक	-12655
▁अनुमा	-12656
▁जितमा	-12657
▁देखाइ	-12658
▁नागढु	-12659
▁वडाको	-12660
▁शुक्ल	-12661
▁सिंगो	-12662
मुग्लिन	-12663
▁बाढीका	-12664
▁राजदुत	-12665
▁चिरञ्जी	-12666
▁दीक्षित	-12667
▁निर्दोष	-12668
▁खानेकुरा	-12669
▁त्यसबारे	-12670
▁दिनुभएको	-12671
▁अधिवेशनमा	-12672
▁गुरुयोजना	-12673
▁पाठ्यक्रम	-12674
▁एमाओवादीका	-12675
▁म्याग्दीको	-12676
इड	-12677
पका	-12678
▁तब	-12679
तथ्य	-12680
ब्रे	-12681
विको	-12682
हिजो	-12683
▁गरु	-12684
▁चैन	-12685
▁सता	-12686
▁सुग	-12687
एसिया	-12688
सत्ता	-12689
▁यूनि	-12690
▁लेखन	-12691
▁वर्क	-12692
प्रत्य	-12693
▁अक्षय	-12694
▁आत्ति	-12695
▁घिसिङ	-12696
▁दिनेछ	-12697
▁शङ्का	-12698
▁गिट्टी	-12699
▁ब्यक्त	-12700
▁रातिको	-12701
▁सिद्धि	-12702
लालम्पुर	-12703
▁निलम्बित	-12704
▁पोख्रेलले	-12705
▁बस्नेतलाई	-12706
▁लाभग्राही	-12707
▁भ्रष्टाचारको	-12708
▁केन्द्रविन्दु	-12709
▁विराटनगरस्थित	-12710
goo	-12711
क्छ	-12712
बढी	-12713
टेको	-12714
न्यू	-12715
▁उछि	-12716
▁एकाइ	-12717
▁तत्व	-12718
▁हटाइ	-12719
सुविधा	-12720
▁पाएकी	-12721
▁कामकाज	-12722
▁खुलेका	-12723
▁गिरीको	-12724
▁थानकोट	-12725
▁कमर्सियल	-12726
▁पत्रकारले	-12727
▁प्लाष्टिक	-12728
)–	-12729
५५	-12730
ः३०	-12731
जोर	-12732
अमेर	-12733
एउटा	-12734
म्भू	-12735
र्दी	-12736
िमेट	-12737
▁अली	-12738
▁खिम	-12739
▁जडी	-12740
▁बसे	-12741
नन्दन	-12742
्याएर	-12743
▁खोजे	-12744
▁बेग्	-12745
▁रिया	-12746
▁सिम्	-12747
▁सुलभ	-12748
▁सोला	-12749
▁आणविक	-12750
▁गोठमा	-12751
▁छुटको	-12752
▁जयन्त	-12753
▁पुर्ण	-12754
▁मर्ने	-12755
▁कर्णले	-12756
▁खाल्डो	-12757
▁घटनाले	-12758
▁ट्रष्ट	-12759
▁रुघाखो	-12760
▁ट्रेडिङ	-12761
▁बच्चाको	-12762
▁रंगेहात	-12763
▁लाखसम्म	-12764
▁मानिसहरू	-12765
▁अस्पतालमै	-12766
▁सातदोबाटो	-12767
▁मकवानपुरका	-12768
ct	-12769
६८	-12770
ुले	-12771
चीको	-12772
त्तो	-12773
फेदी	-12774
वापत	-12775
▁आयर	-12776
▁उनै	-12777
▁मका	-12778
▁मार	-12779
गर्दै	-12780
▁प्रस	-12781
▁हाना	-12782
▁पाइयो	-12783
▁फोर्स	-12784
▁भाग्न	-12785
▁चीनलाई	-12786
▁राख्दा	-12787
▁हिरासत	-12788
▁अपांगता	-12789
▁पुलिसले	-12790
▁स्वास्थ	-12791
▁काभ्रेको	-12792
▁सत्तारूढ	-12793
▁सफ्टवेयर	-12794
▁सहकारीको	-12795
▁निमन्त्रणामा	-12796
▁सम्झौताअनुसार	-12797
▁सुरक्षाकर्मीको	-12798
इओ	-12799
▁)	-12800
होस	-12801
▁गरग	-12802
▁जिन	-12803
▁रोश	-12804
▁सघन	-12805
▁सुव	-12806
पोखरा	-12807
मोबाइ	-12808
र्जित	-12809
▁कामी	-12810
▁भालु	-12811
▁विनय	-12812
इसकेका	-12813
बद्धता	-12814
▁बैंकर	-12815
▁मस्को	-12816
▁मुखमा	-12817
▁इञ्जिन	-12818
▁दस्तुर	-12819
▁धौलागि	-12820
▁हजारमा	-12821
▁आक्रामक	-12822
▁गरियोस्	-12823
▁प्रसूति	-12824
▁रहनेछन्	-12825
▁शर्माका	-12826
▁पदयात्रा	-12827
▁पर्यटकले	-12828
▁पोखराबाट	-12829
▁मध्यान्ह	-12830
▁सिमानामा	-12831
▁धरानस्थित	-12832
▁स्ट्राइकर	-12833
३१	-12834
३३	-12835
कने	-12836
लेश	-12837
ेजको	-12838
▁फेड	-12839
च्युट	-12840
ालयमा	-12841
▁आयकर	-12842
▁काट्	-12843
▁क्रु	-12844
▁फस्ट	-12845
▁फोक्	-12846
▁स्टे	-12847
गायतका	-12848
चौलिया	-12849
होरेको	-12850
▁कार्ग	-12851
▁ब्यार	-12852
▁हास्य	-12853
डिरहेका	-12854
▁आमालाई	-12855
▁दोहोर्	-12856
▁सचिवको	-12857
विराटनगर	-12858
▁भरपर्दो	-12859
▁रकमसहित	-12860
▁खुट्टामा	-12861
▁शनिबारको	-12862
▁सभामुखले	-12863
▁प्रदेशबाट	-12864
▁बाढीपहिरो	-12865
▁मुद्दालाई	-12866
▁वृद्धवृद्ध	-12867
▁पाकिस्तानका	-12868
▁प्रक्रियाबाट	-12869
पछ	-12870
६९	-12871
▁ं	-12872
गोर	-12873
पोल	-12874
▁गड	-12875
मन्द	-12876
रत्न	-12877
्यौं	-12878
▁क्व	-12879
▁जगद	-12880
▁डाँ	-12881
▁डुम	-12882
▁याङ	-12883
▁युर	-12884
▁ससु	-12885
तलासी	-12886
▁अहमद	-12887
▁मान्	-12888
▁विकट	-12889
▁सीडी	-12890
▁२००९	-12891
▁श्रेण	-12892
▁सुडान	-12893
▁हलिउड	-12894
▁अर्काे	-12895
▁हजारका	-12896
▁उजुरीका	-12897
▁कृत्रिम	-12898
▁विहीबार	-12899
▁संरक्षक	-12900
▁सामुहिक	-12901
▁कालीमाटी	-12902
▁गरिएकोमा	-12903
▁नेपालीमा	-12904
▁पदपूर्ति	-12905
▁प्राइभेट	-12906
▁महानुभाव	-12907
महामन्त्री	-12908
▁मध्यपहाडी	-12909
▁बंगलादेशको	-12910
▁लघुवित्तले	-12911
▁सक्रियतामा	-12912
▁मसान्तसम्ममा	-12913
▁अफगानिस्तानको	-12914
धमा	-12915
▁कने	-12916
▁खल्	-12917
▁रोह	-12918
▁मामि	-12919
▁शवको	-12920
▁होल्	-12921
▁उल्टै	-12922
▁एसियन	-12923
▁सिन्ड	-12924
सामाजिक	-12925
▁आउँछन्	-12926
▁मान्ने	-12927
▁क्यामरा	-12928
▁पुरुषमा	-12929
▁बर्सेनि	-12930
▁राजभण्ड	-12931
▁सकिँदैन	-12932
▁बालविवाह	-12933
▁देखिन्छन्	-12934
▁विश्वसनीय	-12935
▁बुढाथोकीले	-12936
▁विराटनगरको	-12937
▁रङ	-12938
goog	-12939
निकरण	-12940
▁मास्	-12941
▁मीना	-12942
वस्थित	-12943
▁पार्ट	-12944
▁एनएमबी	-12945
▁कमाएका	-12946
▁पवित्र	-12947
▁त्यसयता	-12948
▁पुँजीको	-12949
▁बढाउँदै	-12950
▁समाजवाद	-12951
▁पुस्तकाल	-12952
▁आयोजनाबाट	-12953
▁पाण्डेलाई	-12954
▁सम्पत्तिको	-12955
▁तिमिल्सिनाले	-12956
९०	-12957
न्डि	-12958
हाली	-12959
▁इजि	-12960
▁शरि	-12961
▁इकाइ	-12962
▁कुहि	-12963
▁निरज	-12964
▁बुढी	-12965
दिवसीय	-12966
▁लडाइँ	-12967
▁लडाकू	-12968
▁सल्ला	-12969
▁औँल्या	-12970
▁तिम्रो	-12971
▁महतोको	-12972
▁युवकले	-12973
▁नपुगेको	-12974
▁पुरिएको	-12975
▁मागसहित	-12976
▁सुन्तला	-12977
▁परियारले	-12978
▁भएलगत्तै	-12979
▁क्याप्टेन	-12980
▁दूतावासको	-12981
▁ह्याट्रिक	-12982
▁बस्नुपर्ने	-12983
▁पोस्टमार्टम	-12984
▁वीरेन्द्रनगर	-12985
चाई	-12986
शुल	-12987
▁नउ	-12988
गमनमा	-12989
विचार	-12990
ियामा	-12991
▁पिसि	-12992
▁रेशम	-12993
▁सर्ज	-12994
▁खटिने	-12995
▁गुप्त	-12996
▁दिइयो	-12997
▁धान्न	-12998
▁नहुनु	-12999
▁आफुलाई	-13000
▁निकटतम	-13001
▁प्रदिप	-13002
▁सुनसान	-13003
▁अभिकर्ता	-13004
▁महानगरको	-13005
▁हात्तीले	-13006
▁प्रकृतिको	-13007
▁व्यक्तिमा	-13008
▁अख्तियारका	-13009
▁दाहसंस्कार	-13010
▁विराटनगरका	-13011
▁सहभागितामा	-13012
▁अन्त्येष्टि	-13013
▁राष्ट्रियता	-13014
▁विश्वप्रकाश	-13015
४८	-13016
उद्	-13017
गुन	-13018
तत्	-13019
मिण	-13020
निकल	-13021
▁ननि	-13022
▁नसु	-13023
letag	-13024
निक्स	-13025
▁शोषण	-13026
प्रताप	-13027
▁अभद्र	-13028
▁जुट्न	-13029
▁लेख्न	-13030
▁गराएकी	-13031
▁जोडीले	-13032
▁रञ्जित	-13033
▁सभाबाट	-13034
▁उपलब्धी	-13035
▁खनाललाई	-13036
▁बास्केट	-13037
googletag	-13038
▁गर्नुअघि	-13039
▁छानबिनका	-13040
▁तरकारीको	-13041
▁प्रमुखले	-13042
▁युनियनले	-13043
▁विर्तामो	-13044
▁घण्टासम्म	-13045
▁च्यालेन्ज	-13046
▁ब्याजदरमा	-13047
▁सुर्खेतका	-13048
▁पोष्टमार्टम	-13049
▁प्रतिवेदनले	-13050
▁अर्थमन्त्रीले	-13051
यज्ञ	-13052
ुवाँ	-13053
▁चतु	-13054
▁माह	-13055
ग्लाइ	-13056
सिफिक	-13057
▁दत्त	-13058
▁पाखा	-13059
▁भान्	-13060
▁कोलका	-13061
▁खन्ने	-13062
▁डान्स	-13063
▁प्रथा	-13064
▁बेइजि	-13065
▁अश्रुग	-13066
▁निर्वा	-13067
▁भ्वाइस	-13068
▁मोबाईल	-13069
▁वर्गको	-13070
▁सम्हाल	-13071
▁निषेधित	-13072
▁परिसरका	-13073
▁पर्साको	-13074
▁प्याकुर	-13075
▁हामीसँग	-13076
▁आयुर्वेद	-13077
▁भिडियोको	-13078
▁मिडियामा	-13079
▁बानेश्वरमा	-13080
▁सिन्धुलीको	-13081
▁स्वामित्वमा	-13082
रभ	-13083
डिओ	-13084
णले	-13085
हिँ	-13086
खाले	-13087
तलास	-13088
बर्ग	-13089
ेलका	-13090
▁कान	-13091
▁डोर	-13092
यताको	-13093
वितरण	-13094
▁खाले	-13095
▁गरको	-13096
▁डिलर	-13097
▁ड्यु	-13098
▁बच्च	-13099
▁सुबि	-13100
छिन्द्र	-13101
▁आतिथ्य	-13102
▁चुनौति	-13103
▁बोलेरो	-13104
▁सञ्जीव	-13105
▁कक्षामा	-13106
▁देउराली	-13107
▁देउवाको	-13108
▁द्वितीय	-13109
▁बराबरका	-13110
▁जनामध्ये	-13111
▁मसान्तमा	-13112
▁योगदानको	-13113
▁वर्गीकरण	-13114
▁विस्तारमा	-13115
▁एक्सटेन्सन	-13116
टम	-13117
ुश	-13118
४९	-13119
कबाट	-13120
साले	-13121
हजार	-13122
होला	-13123
▁आया	-13124
▁बिन	-13125
ञ्जना	-13126
बर्दि	-13127
मेण्ट	-13128
हुनेछ	-13129
ुवाको	-13130
्यारि	-13131
▁क्षण	-13132
▁छत्र	-13133
▁पचास	-13134
▁मुचु	-13135
▁रोगी	-13136
▁धानको	-13137
▁नपाएर	-13138
▁यूरोप	-13139
▁लिँदा	-13140
▁सुन्न	-13141
▁स्याङ	-13142
▁हितका	-13143
▁गिरिजा	-13144
▁दुख्ने	-13145
▁मञ्चमा	-13146
▁मनाएका	-13147
▁राम्रै	-13148
▁वर्ल्ड	-13149
▁समुद्र	-13150
▁अघिल्ला	-13151
▁एकअर्का	-13152
▁एनसेलको	-13153
▁फर्काउने	-13154
▁खेलिरहेका	-13155
▁टेक्नोलोजी	-13156
▁प्राधिकरणलाई	-13157
▁सर्वोत्कृष्ट	-13158
ण्य	-13159
बित	-13160
▁पप	-13161
पाटन	-13162
▁पृत	-13163
▁यती	-13164
एसँगै	-13165
र्जुन	-13166
▁झन्झ	-13167
▁बित्	-13168
▁सयको	-13169
लेटिको	-13170
▁अचम्म	-13171
▁उसलाई	-13172
▁चिह्न	-13173
▁बढ्यो	-13174
▁मनोबल	-13175
▁उत्खनन	-13176
▁कान्छा	-13177
▁टावरमा	-13178
▁रकमबाट	-13179
▁सहितका	-13180
▁सिरिया	-13181
▁सौराहा	-13182
▁स्टेशन	-13183
▁हाल्ने	-13184
▁छाडिएको	-13185
▁नपाउँदा	-13186
▁रौतहटका	-13187
▁प्रश्नमा	-13188
▁यसबारेमा	-13189
▁रिलायन्स	-13190
▁तस्बिरहरु	-13191
▁राप्रपाले	-13192
▁शैलेन्द्र	-13193
▁छुट्याइएको	-13194
▁नवलपरासीका	-13195
▁प्रणालीलाई	-13196
▁लाग्नुपर्ने	-13197
▁क्वारेन्टिनमा	-13198
खुसी	-13199
घारी	-13200
ङ्गी	-13201
ट्जर	-13202
दालत	-13203
फेले	-13204
य्या	-13205
▁आपत	-13206
▁कलम	-13207
▁डिस	-13208
▁थोक	-13209
▁बडी	-13210
▁निशा	-13211
▁रहेन	-13212
▁सिकि	-13213
जेन्सी	-13214
त्ताको	-13215
त्तिमा	-13216
ब्युरो	-13217
्रष्टा	-13218
▁चन्दन	-13219
▁चुरोट	-13220
▁ट्विट	-13221
▁घरधुरी	-13222
▁फर्केर	-13223
▁बास्तो	-13224
▁बीबीसी	-13225
▁इन्डियन	-13226
▁दर्शकले	-13227
▁बाहिरका	-13228
▁युट्युब	-13229
▁मिलेमतोमा	-13230
▁शिष्टाचार	-13231
▁विष्णुप्रसाद	-13232
२८	-13233
जुए	-13234
नेश	-13235
▁बसी	-13236
▁युभ	-13237
▁बोल्	-13238
▁ब्यु	-13239
▁रोचक	-13240
▁दुग्ध	-13241
▁मजदूर	-13242
▁सहारा	-13243
▁ठाउँको	-13244
▁नेम्बा	-13245
▁भ्याले	-13246
रीक्षकको	-13247
▁उहाँलाई	-13248
▁मण्डलको	-13249
▁वर्षेनी	-13250
▁बाँडफाँट	-13251
▁अधिवेशनको	-13252
▁उल्लेखनीय	-13253
▁तेजबहादुर	-13254
▁नेपालसहित	-13255
▁साताभित्र	-13256
▁प्रहरीमाथि	-13257
एन्	-13258
आएका	-13259
करको	-13260
विगत	-13261
सम्भ	-13262
हाको	-13263
▁शोध	-13264
▁साय	-13265
▁इमेल	-13266
▁पोर्ट	-13267
▁लुकेर	-13268
▁सुदीप	-13269
कर्ताको	-13270
कारखाना	-13271
▁चहलपहल	-13272
▁नगर्नु	-13273
▁नाफामा	-13274
▁प्रगाढ	-13275
▁भुमिका	-13276
▁मेयरमा	-13277
▁हेरचाह	-13278
▁चौतर्फी	-13279
▁पोर्चुग	-13280
▁विवाहको	-13281
▁अध्ययनमा	-13282
▁भरतपुरमा	-13283
▁भूकम्पमा	-13284
▁गरिसकिएको	-13285
▁रिपोर्टमा	-13286
▁त्रिपाठीले	-13287
▁प्रशासनलाई	-13288
▁क्वालालम्पुर	-13289
ce	-13290
ia	-13291
फिट	-13292
वको	-13293
हिल	-13294
▁to	-13295
▁चम	-13296
ीनगर	-13297
▁बडा	-13298
▁माउ	-13299
rdquo	-13300
▁आगमन	-13301
▁आर्ट	-13302
▁गार्	-13303
▁याएर	-13304
▁रेल्	-13305
▁अनिता	-13306
▁क्रसर	-13307
▁खाएका	-13308
▁बर्षे	-13309
▁सडकमै	-13310
▁सबैमा	-13311
▁देखेको	-13312
▁प्रभात	-13313
▁यसवर्ष	-13314
▁हिउँदे	-13315
▁प्रवासी	-13316
▁रक्तचाप	-13317
▁क्वार्टर	-13318
▁ब्याट्री	-13319
▁मेमोरियल	-13320
▁वक्तव्यमा	-13321
▁सर्लाहीका	-13322
▁प्रदेशसभाको	-13323
झो	-13324
यौ	-13325
जरी	-13326
देउ	-13327
िकर	-13328
▁ओग	-13329
ध्वज	-13330
निकट	-13331
ल्के	-13332
▁०७५	-13333
प्रेर	-13334
▁एसिड	-13335
▁गोला	-13336
▁निमो	-13337
▁पठाई	-13338
▁रहनु	-13339
▁विगो	-13340
▁ग्रिन	-13341
▁चेतना	-13342
▁डेबिट	-13343
▁निम्न	-13344
▁पुरात	-13345
▁फाइबर	-13346
▁भ्याट	-13347
सुरक्षा	-13348
▁आईतबार	-13349
▁कार्गो	-13350
▁जोमसोम	-13351
▁भूमिमा	-13352
▁सुरुआत	-13353
▁इलाकामा	-13354
▁एनआरएनए	-13355
▁मतदानमा	-13356
▁एकजनालाई	-13357
▁गरिएकाले	-13358
▁अध्यक्षता	-13359
▁उर्लाबारी	-13360
▁कार्यपत्र	-13361
▁विस्फोटमा	-13362
▁प्रक्रियाको	-13363
▁इन्स्योरेन्सको	-13364
▁सञ्चारकर्मीसँग	-13365
गोठ	-13366
नास	-13367
▁अठ	-13368
▁तास	-13369
▁दंग	-13370
ियानो	-13371
▁क्रस	-13372
▁दुनै	-13373
▁हतार	-13374
धिकारी	-13375
र्जनको	-13376
▁बुलेट	-13377
▁विकल्	-13378
▁सहजता	-13379
▁किनभने	-13380
▁चार्टर	-13381
▁संहिता	-13382
▁सुष्मा	-13383
▁लाग्दैन	-13384
▁अगुवाइमा	-13385
▁घटनाक्रम	-13386
▁गिरिराजमणि	-13387
▁सर्वेन्द्र	-13388
▁पूर्णबहादुर	-13389
▁सेवाग्राहीको	-13390
६६	-13391
ईन्	-13392
पीको	-13393
सनका	-13394
▁अश्	-13395
▁तमु	-13396
▁मत्	-13397
▁इन्ट	-13398
▁ड्रा	-13399
▁नभेट	-13400
▁पुरी	-13401
▁ब्रु	-13402
▁भागब	-13403
चिकित्	-13404
सारीले	-13405
▁कारमा	-13406
▁जसलाई	-13407
▁भदौमा	-13408
▁मोवाइ	-13409
▁सकिएन	-13410
▁सडकका	-13411
▁एक्स्ट	-13412
▁गरगहना	-13413
▁त्रिशु	-13414
▁राजवंश	-13415
▁स्वर्गीय	-13416
▁त्रैमासिक	-13417
▁काँग्रेसले	-13418
▁लोकतन्त्रको	-13419
▁पदाधिकारीलाई	-13420
▁न्युजिल्यान्ड	-13421
▁सिन्धुपाल्चोकको	-13422
५८	-13423
७९	-13424
वराज	-13425
▁ओबा	-13426
▁कफी	-13427
▁खेल्	-13428
▁बादल	-13429
▁मिसा	-13430
▁संसो	-13431
ट्टामा	-13432
शालाको	-13433
▁छिरिङ	-13434
▁फसेका	-13435
▁फाराम	-13436
▁बितरण	-13437
▁मेशिन	-13438
▁हुलाक	-13439
▁उन्मुख	-13440
▁एकातिर	-13441
▁चालिसे	-13442
▁तेक्वा	-13443
▁निर्भर	-13444
▁मनाएको	-13445
काठमाडौँ	-13446
▁पोष्टमा	-13447
▁मोक्तान	-13448
▁वासुदेव	-13449
अनुसन्धान	-13450
▁अबस्थामा	-13451
▁अभियानले	-13452
▁किशोरीको	-13453
▁खतिवडाको	-13454
▁परिचालित	-13455
▁पानीजहाज	-13456
▁सत्यतथ्य	-13457
▁कम्पनीबाट	-13458
▁निस्किएका	-13459
▁प्रान्तको	-13460
▁महासचिवमा	-13461
▁उपक्षेत्रीय	-13462
▁बुझाउनुपर्ने	-13463
▁सेवाग्राहीले	-13464
▁कर्मचारीहरुले	-13465
▁लगानीकर्ताहरु	-13466
▁प्रदर्शनकारीले	-13467
८५	-13468
समय	-13469
▁धक	-13470
खिला	-13471
बीको	-13472
▁टोप	-13473
न्ध्र	-13474
▁ड्रो	-13475
▁भोली	-13476
▁मेडि	-13477
▁शितल	-13478
▁सख्त	-13479
▁साँघ	-13480
व्यस्त	-13481
▁चलाएर	-13482
▁शेरधन	-13483
▁कोषबाट	-13484
▁माउन्ट	-13485
▁रोपाइँ	-13486
▁विगतको	-13487
▁सारेका	-13488
▁युवाहरु	-13489
▁स्काभेट	-13490
▁माध्यमले	-13491
▁हिमपातले	-13492
▁चिरञ्जीवी	-13493
▁बैंकहरुको	-13494
▁महाभूकम्प	-13495
▁काठमाडौँका	-13496
▁विज्ञप्तिमार्फत	-13497
ङग	-13498
▁झन	-13499
यकोष	-13500
यन्स	-13501
▁कस्	-13502
▁भाँ	-13503
क्सले	-13504
धनीको	-13505
▁उठेर	-13506
▁डायल	-13507
नान्तर	-13508
स्कृति	-13509
▁भूगोल	-13510
▁रुटमा	-13511
▁सावित	-13512
▁घरघरमा	-13513
▁त्यहीँ	-13514
▁बारीमा	-13515
▁भेट्ने	-13516
▁मनोनित	-13517
▁लेख्ने	-13518
▁हिँडेर	-13519
▁नगदसहित	-13520
▁सामानमा	-13521
▁अभिनन्दन	-13522
▁उल्लेखित	-13523
▁कलाकारको	-13524
▁गर्नेगरी	-13525
▁भत्काएको	-13526
▁सन्देशमा	-13527
▁घोषणापत्र	-13528
▁निक्षेपमा	-13529
▁वेबसाइटमा	-13530
▁स्थापनाका	-13531
▁पत्रकारसँग	-13532
▁माओवादीलाई	-13533
▁प्रोत्साहित	-13534
▁स्थानीयबासीले	-13535
tw	-13536
झै	-13537
▁लक	-13538
▁सज	-13539
तिया	-13540
न्छी	-13541
न्डो	-13542
हिया	-13543
▁असई	-13544
▁जमी	-13545
▁तृत	-13546
▁बूढ	-13547
▁मुन	-13548
पार्ट	-13549
▁अव्य	-13550
▁गोपी	-13551
▁बोलि	-13552
▁सादा	-13553
▁जमुना	-13554
▁पराजय	-13555
▁पर्चा	-13556
▁पर्यो	-13557
▁सिटमा	-13558
सम्पन्न	-13559
▁उत्तरा	-13560
▁दम्पती	-13561
▁माविको	-13562
▁अविलम्ब	-13563
▁अस्मिता	-13564
▁एक्स्पो	-13565
▁काटिएको	-13566
▁घाँटीमा	-13567
▁नजिकबाट	-13568
▁फेवाताल	-13569
▁यसअघिको	-13570
▁हानाहान	-13571
▁इञ्जिनीय	-13572
▁भद्रकाली	-13573
▁रत्नपार्क	-13574
▁संरक्षणका	-13575
▁जोखिमपूर्ण	-13576
▁सांसदहरूले	-13577
▁निर्वाचनलाई	-13578
▁व्यवसायीहरुले	-13579
६५	-13580
▁l	-13581
याङ	-13582
गुरु	-13583
तिष्	-13584
लामो	-13585
▁बाब	-13586
करणका	-13587
जहारी	-13588
दित्य	-13589
▁चौमा	-13590
▁झोलु	-13591
▁सिन्	-13592
वारिसे	-13593
▁कोइला	-13594
▁झुन्ड	-13595
▁डलरमा	-13596
▁राष्ट	-13597
▁शिर्ष	-13598
▁इरानले	-13599
▁खाल्डा	-13600
▁दुर्लभ	-13601
▁सोल्टी	-13602
▁स्विका	-13603
▁इस्लामा	-13604
▁चियापान	-13605
▁दोलखाको	-13606
▁बाँकेमा	-13607
▁राजपाले	-13608
▁वितरणको	-13609
▁निकुञ्जको	-13610
▁प्रणालीबाट	-13611
▁अध्यक्षसमेत	-13612
▁युनिभर्सिटी	-13613
जाम	-13614
राङ	-13615
▁गम	-13616
▁ही	-13617
डेको	-13618
र्यो	-13619
▁घुम	-13620
▁तेश	-13621
चितवन	-13622
डेन्ट	-13623
▁दातृ	-13624
आर्थिक	-13625
जोमसोम	-13626
त्रीले	-13627
नमार्क	-13628
▁थपेको	-13629
▁दिंदा	-13630
▁नम्वर	-13631
▁जटिलता	-13632
▁दिइनेछ	-13633
▁धरानका	-13634
▁पुष्पा	-13635
▁मधेसका	-13636
▁म्यादी	-13637
▁सप्लाय	-13638
▁ढकाललाई	-13639
▁देखाउँछ	-13640
▁धर्नामा	-13641
▁प्रतिष्	-13642
▁मानिसमा	-13643
▁हप्तामा	-13644
▁राजस्थान	-13645
▁वीरगन्जमा	-13646
▁बंगलादेशमा	-13647
ह्	-13648
९५	-13649
▁ः	-13650
छिपी	-13651
डिने	-13652
ढाएर	-13653
र्के	-13654
▁बंै	-13655
▁मन्	-13656
फाइनल	-13657
▁नामा	-13658
▁पाथी	-13659
▁बर्द	-13660
▁बिगत	-13661
▁बेन्	-13662
▁भेट्	-13663
▁सोझै	-13664
कमध्ये	-13665
नसकेको	-13666
▁एक्स्	-13667
▁गठनको	-13668
▁जितका	-13669
▁नाइके	-13670
▁नियमा	-13671
▁पम्फा	-13672
▁राहुल	-13673
▁श्रवण	-13674
अमेरिकी	-13675
कुमेन्ट	-13676
बाहेकका	-13677
▁आशङ्का	-13678
▁जहाजमा	-13679
▁ट्र्या	-13680
▁तर्फको	-13681
▁पद्धति	-13682
▁बालाजु	-13683
▁रहेपनि	-13684
▁सुक्खा	-13685
▁अक्सिजन	-13686
▁क्यापिट	-13687
▁फर्केको	-13688
▁सफलताको	-13689
▁कास्कीको	-13690
▁वृद्धिको	-13691
▁साउनदेखि	-13692
▁हजारदेखि	-13693
▁चिन्ताजनक	-13694
▁मनोजकुमार	-13695
▁राप्रपाका	-13696
▁सचिवालयको	-13697
▁काठमाण्डौं	-13698
▁न्यौपानेको	-13699
▁परियोजनामा	-13700
▁परिवर्तनका	-13701
▁उम्मेदवारले	-13702
▁पुनर्संरचना	-13703
▁कर्मचारीहरुको	-13704
ड्के	-13705
लिटी	-13706
▁सुक	-13707
▁हर्	-13708
ङ्गको	-13709
पट्टी	-13710
▁घरदै	-13711
▁रविन	-13712
▁रियो	-13713
▁श्रा	-13714
पानीमा	-13715
मानन्द	-13716
▁अगावै	-13717
▁गतेका	-13718
▁जवाफी	-13719
▁दिक्त	-13720
▁देशकै	-13721
▁अग्रिम	-13722
▁आश्रित	-13723
▁नर्भिक	-13724
▁बोहोरा	-13725
▁चलाउँदा	-13726
▁चलाउँदै	-13727
▁बलिउडमा	-13728
▁राम्ररी	-13729
▁वर्षिया	-13730
▁शुल्कमा	-13731
▁दिल्लीको	-13732
▁हजारसम्म	-13733
▁कम्पनीहरु	-13734
▁प्रोजेक्ट	-13735
▁रायमाझीले	-13736
▁व्यवस्थामा	-13737
▁दिल्लीस्थित	-13738
▁स्वास्थ्यचौकी	-13739
३४	-13740
जेको	-13741
फ्रा	-13742
▁अजि	-13743
▁फुङ	-13744
विशेष	-13745
▁उग्र	-13746
▁खेप्	-13747
▁छुरा	-13748
▁तमलो	-13749
▁स्कट	-13750
▁अनशनरत	-13751
▁आफैँले	-13752
▁खोज्नु	-13753
▁दाहिने	-13754
▁हिर्का	-13755
▁खोजतलास	-13756
▁पर्वतको	-13757
▁यसबाहेक	-13758
▁वैधानिक	-13759
▁क्यासिनो	-13760
▁खानतलासी	-13761
▁ठोक्किएर	-13762
▁पश्चिममा	-13763
▁लकडाउनमा	-13764
▁सहभागीता	-13765
▁वीरगन्जको	-13766
▁मसान्तभित्र	-13767
▁मन्त्रालयसँग	-13768
▁प्रतिनिधिसभामा	-13769
erv	-13770
फुट	-13771
▁लौ	-13772
बीआई	-13773
बुखै	-13774
यनगर	-13775
राती	-13776
▁निक	-13777
बोर्ड	-13778
▁चर्क	-13779
▁जर्ज	-13780
▁बर्ड	-13781
▁मनका	-13782
▁वरीय	-13783
बैठकले	-13784
▁काठको	-13785
▁गोलमा	-13786
▁बाघको	-13787
▁रातको	-13788
▁लिइने	-13789
▁स्कूल	-13790
▁स्वाद	-13791
क्रेटरी	-13792
ग्राममा	-13793
▁कुर्सी	-13794
▁कुश्मा	-13795
▁खटाएको	-13796
▁शरीरको	-13797
▁सिस्ने	-13798
्यास्त्र	-13799
▁फागुनमा	-13800
▁सीताराम	-13801
▁अस्तित्व	-13802
▁इमिरेट्स	-13803
▁एकदिवसीय	-13804
▁प्रदेशले	-13805
▁कीर्तिपुर	-13806
▁घिमिरेलाई	-13807
▁निर्णयबाट	-13808
▁व्यवसायको	-13809
▁सम्बन्धका	-13810
▁विद्यार्थीका	-13811
▁केन्द्रबिन्दु	-13812
▁जानकारीअनुसार	-13813
▁च्याम्पियनसिपमा	-13814
फू	-13815
ity	-13816
्रल	-13817
अदालत	-13818
ङ्कमा	-13819
लोत्त	-13820
▁जनजा	-13821
▁जायज	-13822
▁निश्	-13823
▁मुछि	-13824
▁वाषि	-13825
▁सधैँ	-13826
▁साइट	-13827
▁२०५९	-13828
राजधान	-13829
▁मौसमी	-13830
▁सुनील	-13831
विभिन्न	-13832
▁आईसीयू	-13833
▁पूर्वस	-13834
▁भाग्ने	-13835
▁म्यान्	-13836
▁सेकेन्	-13837
▁तालिममा	-13838
▁तोकिएका	-13839
▁दरखास्त	-13840
▁महायज्ञ	-13841
▁राखेपछि	-13842
▁गिरफ्तार	-13843
▁अनिलकुमार	-13844
▁क्रिकेटको	-13845
▁दूतावासमा	-13846
▁बैंकहरूले	-13847
▁वातावरणमा	-13848
▁टुँडिखेलमा	-13849
लोकतान्त्रिक	-13850
-'	-13851
ig	-13852
जब	-13853
ुन	-13854
डुल	-13855
म्न	-13856
देखी	-13857
बराब	-13858
र्सल	-13859
्छन्	-13860
▁पिस	-13861
▁लाङ	-13862
▁सुध	-13863
भरिका	-13864
▁कमिट	-13865
▁जगदी	-13866
▁थुना	-13867
▁माना	-13868
▁रसिद	-13869
▁सेलि	-13870
▁क्षेप	-13871
▁खोजेर	-13872
▁गृहमा	-13873
▁लण्डन	-13874
▁लाखौँ	-13875
▁हटेको	-13876
▁अयोग्य	-13877
▁थाल्यो	-13878
▁रिजर्भ	-13879
▁वकिलको	-13880
प्रतिष्ठ	-13881
▁मालबाहक	-13882
▁समवेदना	-13883
▁सुनसहित	-13884
▁कावासोती	-13885
▁बीबीसीले	-13886
▁विश्लेषक	-13887
▁संगीतकार	-13888
▁सम्झनामा	-13889
▁व्यापारमा	-13890
▁संक्षिप्त	-13891
▁सम्हालेका	-13892
▁सिन्डिकेट	-13893
▁उत्पादनलाई	-13894
▁क्याम्पसका	-13895
▁बार्सिलोनाका	-13896
▁राष्ट्रसंघको	-13897
▁क्षेप्यास्त्र	-13898
▁राजविराजस्थित	-13899
्ा	-13900
रही	-13901
एक्स	-13902
शैली	-13903
▁जसो	-13904
गर्जन	-13905
भत्ता	-13906
▁आकां	-13907
▁नसकि	-13908
▁पाउँ	-13909
▁आसपास	-13910
▁कामले	-13911
▁खसेका	-13912
▁डब्लु	-13913
सामान्य	-13914
▁तेश्रो	-13915
▁पक्षीय	-13916
▁माथिका	-13917
▁सानेपा	-13918
▁सिक्कि	-13919
▁स्वाभि	-13920
प्रश्वास	-13921
▁खुलाउने	-13922
▁गिरीलाई	-13923
▁जगदम्बा	-13924
▁तालिकाको	-13925
▁महानगरका	-13926
▁शेर्पाको	-13927
▁सेन्सेटिभ	-13928
▁कोरियोग्रा	-13929
▁प्रदर्शनका	-13930
▁प्रतिनिधिको	-13931
ht	-13932
चै	-13933
ठौं	-13934
डेरी	-13935
रेले	-13936
▁थाई	-13937
डब्लू	-13938
▁एन्ज	-13939
▁बोका	-13940
ठाउँमा	-13941
यात्रु	-13942
▁अनौठो	-13943
▁किनार	-13944
▁रणवीर	-13945
▁सक्यो	-13946
▁चौतारा	-13947
▁जयन्ती	-13948
▁लम्बाइ	-13949
कर्तालाई	-13950
▁एभरेस्ट	-13951
▁परिषदको	-13952
▁मर्कामा	-13953
▁महत्वका	-13954
नगरपालिका	-13955
▁आइपुग्ने	-13956
▁एमालेलाई	-13957
▁बिस्तारै	-13958
▁मुद्दाका	-13959
▁संक्रमणका	-13960
▁संलग्नलाई	-13961
▁सिमेन्टको	-13962
▁सुविधाहरु	-13963
▁डिल्लीबजार	-13964
▁चन्द्रागिरि	-13965
▁प्याराग्लाइ	-13966
▁प्रदेशसभामा	-13967
▁प्रत्यक्षदर्श	-13968
६७	-13969
ौटी	-13970
गर्भ	-13971
बादी	-13972
▁कोर	-13973
▁उठ्न	-13974
▁कुकर	-13975
▁चेम्	-13976
▁जनगण	-13977
▁भेडा	-13978
▁रावत	-13979
▁आसन्न	-13980
▁तालीम	-13981
▁मिसाइ	-13982
▁सिप्र	-13983
▁घाटामा	-13984
▁निन्दा	-13985
▁पुनलाई	-13986
▁पोलिसी	-13987
▁शुरुमा	-13988
▁हाललाई	-13989
▁गाउँबाट	-13990
▁संसदबाट	-13991
▁सिफारिश	-13992
▁डडेलधुरा	-13993
▁देखिँदैन	-13994
▁अग्रवालले	-13995
▁महासङ्घका	-13996
▁कुराकानीमा	-13997
▁तनावग्रस्त	-13998
▁दुर्घटनाका	-13999
▁प्रमाणीकरण	-14000
▁सुकुम्बासी	-14001
▁जनप्रतिनिधिले	-14002
शय	-14003
०५	-14004
आजा	-14005
लेन	-14006
▁धि	-14007
लियो	-14008
▁आँग	-14009
उनलाई	-14010
एएफपी	-14011
घण्टा	-14012
ञ्चाल	-14013
▁अन्व	-14014
▁अराज	-14015
▁छाड्	-14016
▁दैवी	-14017
▁पोखे	-14018
▁बापत	-14019
▁लाईफ	-14020
▁पदभार	-14021
▁बायाँ	-14022
▁रोगका	-14023
▁वनस्प	-14024
▁विषेश	-14025
▁शत्रु	-14026
▁कुलमान	-14027
▁नविकरण	-14028
▁बिदामा	-14029
▁मालिका	-14030
▁यद्यपी	-14031
▁राहतको	-14032
▁अपराधमा	-14033
▁गरेकोले	-14034
▁तिलोत्त	-14035
▁उद्यमशील	-14036
▁कास्कीका	-14037
▁केन्द्रीत	-14038
▁कर्णबहादुर	-14039
/1	-14040
em	-14041
वक	-14042
उपा	-14043
किट	-14044
गाँ	-14045
हमा	-14046
▁in	-14047
दुवै	-14048
स्का	-14049
▁चाउ	-14050
▁बलर	-14051
▁लोग	-14052
▁६००	-14053
हार्य	-14054
▁चौपा	-14055
▁नाइट	-14056
▁भातृ	-14057
▁महशु	-14058
मन्दिर	-14059
▁दलसँग	-14060
▁मान्न	-14061
▁सर्ने	-14062
▁सौर्य	-14063
महासचिव	-14064
▁इलामको	-14065
▁कटुवाल	-14066
▁कालिमा	-14067
▁दैनिकी	-14068
▁लगाएकी	-14069
▁सार्थक	-14070
▁सिजनको	-14071
उनीहरुले	-14072
▁कम्प्ले	-14073
▁नाइजेरि	-14074
▁विवरणमा	-14075
▁चिप्लिएर	-14076
▁त्रिपाठी	-14077
▁रिपब्लिक	-14078
▁रुघाखोकी	-14079
▁सक्रियता	-14080
▁अपरिहार्य	-14081
▁दिलबहादुर	-14082
▁नेविसंघका	-14083
▁प्रयोजनको	-14084
▁स्वीकार्य	-14085
▁कर्माचार्य	-14086
▁साँस्कृतिक	-14087
▁नेपालीहरुले	-14088
▁इन्स्योरेन्सले	-14089
नछ	-14090
चमा	-14091
तास	-14092
तुल	-14093
हाउ	-14094
िकै	-14095
ीति	-14096
एपनि	-14097
लमाथि	-14098
▁एफएम	-14099
▁चार्	-14100
▁अशक्त	-14101
▁छायाँ	-14102
▁डुबान	-14103
▁शिकार	-14104
▁स्यान	-14105
▁ह्याक	-14106
ञ्चार्ज	-14107
बराबरको	-14108
▁अब्दुल	-14109
▁किराना	-14110
▁बिजनेस	-14111
▁मध्यमा	-14112
▁यादवका	-14113
▁लायन्स	-14114
▁साउनमा	-14115
▁हातबाट	-14116
▁अफ्रिकी	-14117
▁बस्तीका	-14118
▁दलहरुलाई	-14119
▁पञ्चकन्या	-14120
▁सम्मेलनका	-14121
▁सुर्खेतमा	-14122
▁स्वयंसेवक	-14123
▁तिमिल्सिना	-14124
▁नेदरल्याण्ड	-14125
ँध	-14126
६४	-14127
भटे	-14128
मणी	-14129
ुमा	-14130
ेयक	-14131
▁कक	-14132
त्रो	-14133
▁०७४	-14134
ervic	-14135
ग्रेस	-14136
▁अजित	-14137
▁गुफा	-14138
▁टाइम	-14139
▁मेरि	-14140
▁मोटो	-14141
▁रेसि	-14142
▁अनुशा	-14143
▁अर्की	-14144
▁आश्रय	-14145
▁गर्जन	-14146
▁तिव्र	-14147
▁दुईको	-14148
▁निशान	-14149
▁बन्नु	-14150
▁भैंसी	-14151
▁महशुल	-14152
▁यापिड	-14153
▁लम्की	-14154
राप्रपा	-14155
▁केहीले	-14156
▁देख्दा	-14157
▁राहतका	-14158
▁विष्फो	-14159
▁समेतको	-14160
▁हुनेले	-14161
▁खुलेपछि	-14162
▁पूर्वमा	-14163
▁रहेकामा	-14164
▁समिक्षा	-14165
▁पाँचथरको	-14166
▁प्रतिदिन	-14167
▁बेलायतका	-14168
▁शिक्षाका	-14169
्राष्ट्रिय	-14170
▁प्रकृतिका	-14171
▁उपविजेताले	-14172
▁ताप्लेजुङको	-14173
▁चिकित्सकहरुले	-14174
यरि	-14175
्ठा	-14176
डीका	-14177
रागी	-14178
हरुख	-14179
▁असम	-14180
▁उरु	-14181
▁कां	-14182
▁रथी	-14183
▁लगि	-14184
लेश्व	-14185
स्कुल	-14186
ित्ता	-14187
▁छपाइ	-14188
▁दिवा	-14189
▁बेरु	-14190
▁सफाई	-14191
▁सोझो	-14192
▁घटेका	-14193
▁पौड्य	-14194
▁बेल्ट	-14195
▁मकालु	-14196
▁मुद्द	-14197
▁स्नान	-14198
▁अनशनमा	-14199
▁केन्या	-14200
▁गीतकार	-14201
▁बाढीको	-14202
▁मान्दै	-14203
▁रिसर्च	-14204
▁ग्रामिण	-14205
▁जोशीलाई	-14206
▁बैतडीका	-14207
▁मर्जरको	-14208
▁मार्गमा	-14209
▁स्रष्टा	-14210
▁बिक्रीमा	-14211
▁भिडन्तमा	-14212
▁निकुञ्जका	-14213
▁विजेतालाई	-14214
▁बासिन्दालाई	-14215
▁प्राथमिकताका	-14216
▁सम्पर्कविहीन	-14217
ओले	-14218
बगर	-14219
रुपण	-14220
ाधिन	-14221
▁अनस	-14222
▁गदै	-14223
▁लिक	-14224
▁विम	-14225
itter	-14226
दरवार	-14227
▁फैलन	-14228
संख्यक	-14229
▁ओझाले	-14230
▁गोलभे	-14231
▁ठकुरी	-14232
▁थरुहट	-14233
▁न्युज	-14234
▁रामजी	-14235
▁अन्याय	-14236
▁गर्भपत	-14237
▁सत्रमा	-14238
▁सम्पति	-14239
▁जापानका	-14240
▁मार्गको	-14241
नुपर्नेमा	-14242
▁मुचुल्का	-14243
▁मेघगर्जन	-14244
▁युनियनको	-14245
▁ल्याउँदा	-14246
▁समाधानको	-14247
▁झुण्डिएको	-14248
▁श्रमिकलाई	-14249
▁कर्मचारीका	-14250
▁ग्राहकवर्ग	-14251
▁नियुक्तिका	-14252
▁नियुक्तिको	-14253
▁निर्णयसमेत	-14254
▁प्रवक्ताले	-14255
▁फाउन्डेसनले	-14256
▁भूकम्पपछिको	-14257
▁व्यक्तिहरुको	-14258
आग	-14259
६२	-14260
निर	-14261
याल	-14262
न्दन	-14263
बजेट	-14264
▁आधु	-14265
आफ्नै	-14266
धारमा	-14267
लाउने	-14268
▁उत्ख	-14269
▁जित्	-14270
▁धमला	-14271
▁सिता	-14272
▁बसेकी	-14273
▁सुटिङ	-14274
▁अमात्य	-14275
▁आदित्य	-14276
▁नीतिले	-14277
▁फालेको	-14278
▁रेल्वे	-14279
▁कंग्रेस	-14280
▁बीमालेख	-14281
▁बैंकहरु	-14282
▁मनाउँदै	-14283
▁मुसलमान	-14284
▁सिकिस्त	-14285
▁हेरिएको	-14286
▁जग्गाधनी	-14287
▁डकुमेन्ट	-14288
▁लापरवाही	-14289
▁अन्सारीले	-14290
▁दुर्भाग्य	-14291
▁फ्रान्समा	-14292
▁रामेछापको	-14293
▁माधवप्रसाद	-14294
▁एक्स्टेन्सन	-14295
▁निरुत्साहित	-14296
▁भेटवार्तामा	-14297
▁व्यक्तिहरुलाई	-14298
कुन	-14299
्यौ	-14300
▁ठह	-14301
जियो	-14302
ुर्ण	-14303
▁एमए	-14304
▁दर्	-14305
▁नखो	-14306
▁पहे	-14307
▁फलो	-14308
▁बिछ	-14309
▁हले	-14310
▁उसका	-14311
▁साइड	-14312
प्तिमा	-14313
▁इन्दि	-14314
▁तोक्न	-14315
स्तेदार	-14316
▁चाबहिल	-14317
▁दार्जि	-14318
▁पार्कि	-14319
▁बुझ्दै	-14320
▁बोलेको	-14321
▁मगरलाई	-14322
▁मञ्चले	-14323
▁स्वयम्	-14324
▁इजलासमा	-14325
▁नमान्ने	-14326
▁बहुमतले	-14327
▁बार्षिक	-14328
▁शसस्त्र	-14329
▁सुनाएका	-14330
▁ह्यान्ड	-14331
▁निकायसँग	-14332
▁परियारको	-14333
▁पर्वतारो	-14334
▁ब्युरोले	-14335
▁भैरहवामा	-14336
▁वर्षापछि	-14337
▁सुनाउँदै	-14338
▁ठेकेदारले	-14339
▁मन्त्रीलाई	-14340
▁काठमाडौँबाट	-14341
▁पूर्वाधारको	-14342
▁वृद्धवृद्धा	-14343
▁निर्देशनालयका	-14344
▁प्रतिनिधिसभाका	-14345
राध	-14346
▁अक	-14347
वतमा	-14348
▁आँच	-14349
▁जगा	-14350
▁जाल	-14351
▁पस्	-14352
मानको	-14353
▁जर्न	-14354
▁संगै	-14355
ज्योति	-14356
धाज्ञा	-14357
ष्ट्रि	-14358
▁खाँचो	-14359
▁धनमाल	-14360
▁मेहनत	-14361
▁कठिनाई	-14362
▁जनाएपछि	-14363
▁जापानले	-14364
▁रक्षाका	-14365
▁विभाजित	-14366
▁साँघुरो	-14367
▁सुदर्शन	-14368
▁मर्यादित	-14369
▁प्रतिष्पर्	-14370
▁सर्वोच्चको	-14371
▁हतियारसहित	-14372
ीण	-14373
नाश	-14374
हाक	-14375
▁आख	-14376
द्यु	-14377
▁तिल	-14378
▁साप	-14379
लेखानी	-14380
▁कम्यु	-14381
▁गरेकै	-14382
▁तिहाई	-14383
▁पराजु	-14384
▁बजेका	-14385
▁सत्या	-14386
▁हिँड्	-14387
त्यसपछि	-14388
▁अविजित	-14389
▁आएकोमा	-14390
▁डेब्यु	-14391
▁पाएनन्	-14392
▁विषयगत	-14393
▁सम्बोध	-14394
प्रहरीका	-14395
▁दीपकराज	-14396
▁दुवैजना	-14397
नसम्बन्धी	-14398
▁गरिरहेकी	-14399
▁जनमुक्ति	-14400
▁सदस्यहरू	-14401
▁स्वयम्भू	-14402
▁हुनुभएको	-14403
▁प्रहरीबीच	-14404
▁समयअनुसार	-14405
▁सेक्रेटरी	-14406
▁फर्किसकेका	-14407
▁संचारकर्मी	-14408
▁प्रशिक्षणमा	-14409
▁पर्यटनमन्त्री	-14410
४२	-14411
चलन	-14412
पनका	-14413
प्ति	-14414
▁उज्	-14415
नाथको	-14416
नुसार	-14417
ाइनको	-14418
ेसन्स	-14419
▁खप्त	-14420
▁नियत	-14421
▁भइरह	-14422
▁सिपा	-14423
▁२०६७	-14424
▁जलेका	-14425
▁लुकाई	-14426
twitter	-14427
हामीलाई	-14428
▁ओलीसँग	-14429
▁किरिया	-14430
▁गुराँस	-14431
▁पुराता	-14432
▁मेट्रो	-14433
▁सोधेको	-14434
▁बिरुद्ध	-14435
▁ब्रिटिस	-14436
▁विरोधका	-14437
▁संकलनमा	-14438
संवैधानिक	-14439
▁उनीहरूका	-14440
▁नेपालीका	-14441
▁बलबहादुर	-14442
▁विभागबाट	-14443
▁संरचनाको	-14444
▁गठबन्धनका	-14445
▁लागिपरेको	-14446
▁व्यापारीलाई	-14447
▁बन्दाबन्दीको	-14448
▁राष्ट्रियसभाको	-14449
मोल	-14450
▁उल	-14451
फाइल	-14452
बलको	-14453
ुराम	-14454
▁ऐरी	-14455
▁घुइ	-14456
▁भाज	-14457
राउने	-14458
वरीमा	-14459
▁औजार	-14460
▁बगेर	-14461
▁मामा	-14462
▁रुचि	-14463
▁वनको	-14464
▁हिसा	-14465
▁चढ्ने	-14466
वाणिज्य	-14467
▁कृषकले	-14468
▁जुनियर	-14469
▁ढकालका	-14470
▁बुझेका	-14471
▁भट्टको	-14472
▁हजारौँ	-14473
▁उजुरीमा	-14474
▁कन्सल्ट	-14475
▁थापामगर	-14476
▁नम्वरको	-14477
▁युवतीले	-14478
▁इस्लामिक	-14479
▁तीनजनाको	-14480
▁पोर्चुगल	-14481
▁युरोपियन	-14482
▁लिइरहेका	-14483
▁विश्वराज	-14484
▁शिक्षिका	-14485
▁सम्पुर्ण	-14486
▁सम्मानमा	-14487
▁कार्यदलको	-14488
▁प्रदेशलाई	-14489
▁कम्पनीहरूले	-14490
▁सङ्क्रमितको	-14491
▁योजनाअन्तर्गत	-14492
प्रधानमन्त्रीले	-14493
तय	-14494
४७	-14495
छार	-14496
झैं	-14497
नाक	-14498
बमा	-14499
▁रै	-14500
ठेरो	-14501
लेकी	-14502
वाका	-14503
्रास	-14504
▁ठूल	-14505
चौरमा	-14506
देशमा	-14507
राजपा	-14508
▁गणित	-14509
▁घाटन	-14510
▁पसेर	-14511
▁बिपी	-14512
▁रिर्	-14513
▁वर्ण	-14514
▁चर्का	-14515
▁पछ्या	-14516
▁सिमित	-14517
▁होस्ट	-14518
▁एकताका	-14519
▁खानाको	-14520
▁खोजीका	-14521
▁गान्धी	-14522
▁गोल्छा	-14523
▁ट्विटर	-14524
▁पर्छन्	-14525
▁सेनानी	-14526
▁त्रिपाल	-14527
▁सङ्घर्ष	-14528
▁विद्येयक	-14529
▁पोखरेललाई	-14530
▁व्यवहारमा	-14531
▁संस्करणमा	-14532
▁डिसेम्बरमा	-14533
▁प्रतिरक्षा	-14534
▁पोस्टमार्टमका	-14535
ँै	-14536
गठ	-14537
▁ओछ	-14538
क्चर	-14539
नछेक	-14540
पञ्च	-14541
मधुर	-14542
▁अयो	-14543
▁चुम	-14544
▁लगत	-14545
क्ष्म	-14546
ङ्कको	-14547
वाहिक	-14548
▁उमेद	-14549
▁एघार	-14550
▁जोहो	-14551
▁ताजा	-14552
▁पेन्	-14553
▁मनिष	-14554
▁समिर	-14555
▁सोसल	-14556
गुम्बा	-14557
ङ्ग्रे	-14558
▁किराँ	-14559
▁तालमा	-14560
▁पछाडी	-14561
▁बिकास	-14562
▁युरोक	-14563
▁आकाशमा	-14564
▁जहाजले	-14565
▁झापाले	-14566
▁पिसिआर	-14567
▁बेरोजग	-14568
▁भ्याली	-14569
▁यसपालि	-14570
▁विरुवा	-14571
▁हजारले	-14572
न्ध्यामा	-14573
▁आधुनिकी	-14574
▁खोजेपछि	-14575
▁पुल्चोक	-14576
▁बैठकलाई	-14577
▁ब्यान्ड	-14578
▁भन्छिन्	-14579
▁स्पोर्ट	-14580
▁टुंगिएको	-14581
▁कलकारखाना	-14582
▁अस्ट्रेलियाको	-14583
▁मन्त्रिपरिषद्का	-14584
३६	-14585
कान	-14586
जुले	-14587
फ्रि	-14588
भरमा	-14589
स्कर	-14590
ार्थ	-14591
▁ठाउ	-14592
▁लान	-14593
▁११०	-14594
भर्सन	-14595
▁तटीय	-14596
▁धोका	-14597
▁पथरी	-14598
▁श्रृ	-14599
▁सिधा	-14600
▁नेवार	-14601
▁प्रोट	-14602
▁भरेका	-14603
▁हुदाँ	-14604
▁एकैसाथ	-14605
▁तटबन्ध	-14606
▁उत्खनन्	-14607
▁पञ्चायत	-14608
▁पुलिसका	-14609
▁अवैधानिक	-14610
▁कलाकारले	-14611
▁क्याम्पमा	-14612
▁फाउन्डेसन	-14613
▁रेग्मीलाई	-14614
▁सञ्चालकले	-14615
▁अश्रुग्यास	-14616
▁कञ्चनपुरमा	-14617
▁खरिदबिक्री	-14618
▁बासिन्दाको	-14619
▁भित्र्याएको	-14620
▁साधारणसभाले	-14621
घो	-14622
३९	-14623
दरा	-14624
सिएर	-14625
स्ति	-14626
▁घोर	-14627
▁चाम	-14628
▁तरल	-14629
▁दुर	-14630
▁दोस	-14631
▁धीर	-14632
▁सुट	-14633
▁हाड	-14634
षिर्य	-14635
ानिया	-14636
▁जाली	-14637
▁भुइँ	-14638
▁महार	-14639
▁व्रत	-14640
▁आत्मा	-14641
▁खुलेर	-14642
▁चप्पल	-14643
▁जगदीश	-14644
▁बढ्दा	-14645
▁ब्याड	-14646
▁रातभर	-14647
▁रायले	-14648
▁वितरक	-14649
▁सर्भे	-14650
▁हाल्न	-14651
▁उडानका	-14652
▁जहाजको	-14653
▁ठोकुवा	-14654
▁पेन्सन	-14655
▁बन्देज	-14656
▁भेलाले	-14657
▁भोटेको	-14658
▁हालेको	-14659
ब्रेकरमा	-14660
हुन्थ्यो	-14661
▁आर्मीले	-14662
▁कमिटीले	-14663
▁गाडीलाई	-14664
▁पटकसम्म	-14665
▁भइसक्यो	-14666
▁प्रशिक्ष	-14667
▁भाँचिएको	-14668
▁लिइरहेको	-14669
▁हेर्नुस्	-14670
▁काङ्ग्रेस	-14671
▁चोलेन्द्र	-14672
▁सन्तोषजनक	-14673
▁स्वाभाविक	-14674
▁अधिकारीहरु	-14675
▁अन्तर्गतका	-14676
▁मध्यपश्चिम	-14677
▁स्पष्टिकरण	-14678
▁पृथ्वीनारायण	-14679
वश	-14680
५१	-14681
खोर	-14682
डेन	-14683
▁छत	-14684
▁सफ	-14685
न्ते	-14686
पर्व	-14687
लिका	-14688
ोच्च	-14689
▁डबल	-14690
सदस्य	-14691
सामान	-14692
▁अलिक	-14693
▁ब्लु	-14694
▁शुभे	-14695
▁साहु	-14696
तियारी	-14697
त्तिकै	-14698
रामीले	-14699
ल्लीमा	-14700
▁खानको	-14701
▁थियौँ	-14702
▁नदीले	-14703
▁नरहने	-14704
▁समाति	-14705
▁सागमा	-14706
▁स्याट	-14707
कारबाही	-14708
पश्चिमा	-14709
संयुक्त	-14710
सरकारको	-14711
▁इजरायल	-14712
▁सिमकोट	-14713
▁हाउसमा	-14714
▁अवहेलना	-14715
▁आसपासमा	-14716
▁दोलखाका	-14717
▁पाँचजना	-14718
▁विष्टको	-14719
▁सहकर्मी	-14720
▁डेनमार्क	-14721
▁सुरुवाती	-14722
▁उन्मुक्ति	-14723
▁भइसकेकाले	-14724
▁संस्थानको	-14725
▁केन्द्रलाई	-14726
▁ज्यालादारी	-14727
▁प्रभावशाली	-14728
▁व्यवसायलाई	-14729
▁श्रीमतीलाई	-14730
▁राष्ट्रपतिबाट	-14731
४६	-14732
घोष	-14733
डेर	-14734
माझ	-14735
लाभ	-14736
वेल	-14737
▁ठि	-14738
टाको	-14739
पारि	-14740
वसाय	-14741
वारि	-14742
▁इपि	-14743
▁ऋतु	-14744
▁तीज	-14745
लासिस	-14746
▁अनाथ	-14747
▁नलिई	-14748
▁सिक्	-14749
▁सुजा	-14750
▁सेके	-14751
पुस्तक	-14752
र्थीले	-14753
▁अग्नी	-14754
▁गरेरै	-14755
▁गल्छी	-14756
▁नगरका	-14757
▁अरुलाई	-14758
▁अवज्ञा	-14759
▁पढाउने	-14760
▁हुनबाट	-14761
▁क्यान्स	-14762
▁गोदाममा	-14763
▁प्रतिके	-14764
▁यसअघिका	-14765
▁रिमालले	-14766
▁स्केलको	-14767
▁गोलरक्षक	-14768
▁चट्याङले	-14769
▁थपलियाले	-14770
▁निस्केका	-14771
▁आचार्यलाई	-14772
▁गरिसकेपछि	-14773
▁तिलोत्तमा	-14774
▁मुस्ताङको	-14775
▁मृत्युपछि	-14776
▁वर्षासँगै	-14777
▁स्पर्धामा	-14778
▁तुलसीपुरमा	-14779
▁लगाउनुपर्ने	-14780
▁सुवासचन्द्र	-14781
▁नगरपालिकालाई	-14782
णको	-14783
धेश	-14784
नौं	-14785
०७६	-14786
▁धै	-14787
मुढा	-14788
▁नजर	-14789
▁सबल	-14790
▁सुप	-14791
मधेसी	-14792
ृतिमा	-14793
▁अलग्	-14794
▁झाको	-14795
▁ठाँउ	-14796
▁डेलि	-14797
▁दामो	-14798
▁पासो	-14799
▁बलले	-14800
▁लखेट	-14801
▁वीपी	-14802
▁उद्धव	-14803
▁काबुल	-14804
▁तिहाइ	-14805
▁नेप्स	-14806
▁हौसला	-14807
क्किएको	-14808
▁एकिकृत	-14809
▁डीपीआर	-14810
▁विषयका	-14811
▁हिँड्न	-14812
▁अगाडिको	-14813
▁कुमारले	-14814
▁गोलरहित	-14815
▁जडीबुटी	-14816
▁बिहानको	-14817
▁रसुवाको	-14818
▁समुद्री	-14819
▁चौरजहारी	-14820
▁तामाकोशी	-14821
▁त्यसकारण	-14822
▁साक्षरता	-14823
▁अभिभावकको	-14824
▁नुवाकोटका	-14825
▁ब्यालेन्स	-14826
▁राजविराजमा	-14827
▁व्यवसायीहरु	-14828
ट्य	-14829
भिङ	-14830
वंश	-14831
समु	-14832
▁चट	-14833
▁दह	-14834
ङ्घन	-14835
ञ्जि	-14836
ठ्ठा	-14837
दरको	-14838
साइड	-14839
▁गाइ	-14840
▁चुन	-14841
▁झुट	-14842
गार्ड	-14843
यालाई	-14844
▁इस्ट	-14845
▁कौशल	-14846
▁ठमेल	-14847
▁पालो	-14848
▁भेने	-14849
दाताको	-14850
न्तब्य	-14851
वेक्षण	-14852
साधारण	-14853
▁अलावा	-14854
▁आलिया	-14855
▁लामखु	-14856
▁समयका	-14857
▁सालिक	-14858
▁अपार्ट	-14859
▁उरुग्व	-14860
▁पार्टन	-14861
▁फुटेको	-14862
▁मोवाइल	-14863
▁इजलाशले	-14864
▁प्राज्ञ	-14865
▁मस्तिष्	-14866
▁स्कुलका	-14867
▁खुलाइएको	-14868
▁म्याग्नि	-14869
▁समस्याले	-14870
▁पहिलेदेखि	-14871
▁प्रहरीसँग	-14872
▁विश्वभरका	-14873
▁हावाहुरीले	-14874
▁पूर्वराष्ट्रपति	-14875
नग	-14876
जीत	-14877
ग्रो	-14878
टिकल	-14879
ुराँ	-14880
▁नछा	-14881
▁रुच	-14882
▁सहि	-14883
▁सुझ	-14884
▁होस	-14885
पुँजी	-14886
फोर्ड	-14887
▁ठोक्	-14888
▁बेहु	-14889
▁मनमा	-14890
▁सयमा	-14891
▁सारा	-14892
▁हुमा	-14893
त्तिको	-14894
द्र्धन	-14895
▁देउसी	-14896
▁निजको	-14897
▁युक्त	-14898
▁रुखमा	-14899
▁ससुरा	-14900
▁अग्रणी	-14901
▁आँखामा	-14902
▁फुकुवा	-14903
▁माध्या	-14904
▁रेखदेख	-14905
▁गइसकेको	-14906
▁ट्यांकी	-14907
▁अनुदानमा	-14908
▁अस्थिरता	-14909
▁खेलाडीमा	-14910
▁नमानेपछि	-14911
▁पाल्पाको	-14912
▁बिराटनगर	-14913
▁महिलाहरु	-14914
▁विक्रेता	-14915
अन्तर्गतका	-14916
▁महिलासहित	-14917
▁तुम्बाहाङ्	-14918
▁फाइनान्सको	-14919
ूर	-14920
५४	-14921
गेट	-14922
सीए	-14923
खाने	-14924
भोलि	-14925
सिलो	-14926
ेसँग	-14927
▁दाँ	-14928
▁महर	-14929
▁याए	-14930
▁वाट	-14931
▁सरह	-14932
उत्तर	-14933
टिङको	-14934
दिनको	-14935
▁एकमु	-14936
▁कपको	-14937
▁थपेर	-14938
▁नत्र	-14939
▁पटेल	-14940
▁फिचर	-14941
▁रोयल	-14942
▁ट्रमा	-14943
▁अन्तर्	-14944
▁क्यालि	-14945
▁चोकबाट	-14946
▁चोरीको	-14947
▁च्यापि	-14948
▁थुनछेक	-14949
▁दाखिला	-14950
▁प्रतिव	-14951
▁बर्षमा	-14952
▁भाटभटे	-14953
▁रात्रि	-14954
▁सबैजसो	-14955
▁सुमधुर	-14956
स्पेक्टर	-14957
▁जोरपाटी	-14958
▁दिएकाले	-14959
▁पूँजीगत	-14960
▁प्रतिमा	-14961
▁मर्मतका	-14962
▁परेकालाई	-14963
▁पल्टिँदा	-14964
▁प्रचण्डको	-14965
▁संघीयताको	-14966
▁नागरिकताको	-14967
▁पूर्णरूपमा	-14968
▁सर्वपक्षीय	-14969
▁रेष्टुरेन्ट	-14970
नव	-14971
५७	-14972
एसए	-14973
छिन	-14974
फोर	-14975
थिका	-14976
पाली	-14977
शिला	-14978
▁उजा	-14979
▁बबर	-14980
▁रहर	-14981
▁रित	-14982
▁विन	-14983
क्सको	-14984
▁काबु	-14985
▁घट्न	-14986
▁छाडि	-14987
▁नागा	-14988
▁लाली	-14989
▁२०६६	-14990
▁खेलमै	-14991
▁खेलेर	-14992
▁जन्ती	-14993
▁झिक्न	-14994
▁टेष्ट	-14995
▁तलामा	-14996
▁धन्दा	-14997
▁पेटमा	-14998
▁बग्ने	-14999
▁शङ्कर	-15000
▁सहरको	-15001
▁साबिक	-15002
▁असोजमा	-15003
▁एकलौटी	-15004
▁खेल्दा	-15005
▁टिपरले	-15006
▁दामोदर	-15007
▁संकल्प	-15008
▁साउदले	-15009
▁त्यसैको	-15010
▁दैनिकका	-15011
▁मोदीलाई	-15012
▁विच्छेद	-15013
▁श्रीराम	-15014
केन्द्रीय	-15015
पाकिस्तान	-15016
▁अख्तियारी	-15017
▁प्यासिफिक	-15018
▁विनियोजित	-15019
▁टुंग्याउने	-15020
▁पुननिर्माण	-15021
▁त्रैमाससम्म	-15022
▁कार्यक्रमबाट	-15023
कसै	-15024
दैछ	-15025
शिव	-15026
सरो	-15027
च्दा	-15028
धादि	-15029
ृष्ण	-15030
▁नलग	-15031
▁नित	-15032
▁फुड	-15033
▁लैन	-15034
▁सदै	-15035
कतिपय	-15036
वास्त	-15037
▁आईसी	-15038
▁खाँड	-15039
▁ग्रे	-15040
▁जोगा	-15041
▁डेरी	-15042
▁बानी	-15043
▁मेडल	-15044
▁सल्क	-15045
▁सीपी	-15046
▁दिलिप	-15047
▁नाबाल	-15048
▁पासमा	-15049
▁बैकिङ	-15050
वासीलाई	-15051
ालगत्तै	-15052
्नुपर्छ	-15053
▁किनमेल	-15054
▁जातिको	-15055
▁पैसाको	-15056
▁फर्किए	-15057
▁माविका	-15058
▁सञ्चित	-15059
▁सवालमा	-15060
▁हिन्दी	-15061
▁असुल्ने	-15062
▁अस्वस्थ	-15063
▁इंग्लिस	-15064
▁जनाएकाे	-15065
▁फैलाउने	-15066
▁बोर्डिङ	-15067
▁स्थिरता	-15068
▁स्यानिट	-15069
▁अधिकृतले	-15070
▁कर्पोरेसन	-15071
▁हल्कादेखि	-15072
▁दरबारमार्ग	-15073
▁नियमावलीमा	-15074
▁निषेधाज्ञा	-15075
५९	-15076
जुद	-15077
यदि	-15078
▁गइ	-15079
च्छे	-15080
डारी	-15081
शांक	-15082
▁चुप	-15083
▁लोप	-15084
ङ्गमा	-15085
माध्य	-15086
वृत्त	-15087
ालियन	-15088
▁उपलव	-15089
▁डोरी	-15090
[...]
